unsigned char tflite_micro_model_tflite[] = {
  0x20, 0x00, 0x00, 0x00, 0x54, 0x46, 0x4c, 0x33, 0x00, 0x00, 0x00, 0x00,
  0x14, 0x00, 0x20, 0x00, 0x1c, 0x00, 0x18, 0x00, 0x14, 0x00, 0x10, 0x00,
  0x0c, 0x00, 0x00, 0x00, 0x08, 0x00, 0x04, 0x00, 0x14, 0x00, 0x00, 0x00,
  0x1c, 0x00, 0x00, 0x00, 0x98, 0x00, 0x00, 0x00, 0xf0, 0x00, 0x00, 0x00,
  0x64, 0x08, 0x00, 0x00, 0x74, 0x08, 0x00, 0x00, 0x38, 0x12, 0x00, 0x00,
  0x03, 0x00, 0x00, 0x00, 0x01, 0x00, 0x00, 0x00, 0x10, 0x00, 0x00, 0x00,
  0x00, 0x00, 0x0a, 0x00, 0x10, 0x00, 0x0c, 0x00, 0x08, 0x00, 0x04, 0x00,
  0x0a, 0x00, 0x00, 0x00, 0x0c, 0x00, 0x00, 0x00, 0x1c, 0x00, 0x00, 0x00,
  0x3c, 0x00, 0x00, 0x00, 0x0f, 0x00, 0x00, 0x00, 0x73, 0x65, 0x72, 0x76,
  0x69, 0x6e, 0x67, 0x5f, 0x64, 0x65, 0x66, 0x61, 0x75, 0x6c, 0x74, 0x00,
  0x01, 0x00, 0x00, 0x00, 0x04, 0x00, 0x00, 0x00, 0x90, 0xff, 0xff, 0xff,
  0x0a, 0x00, 0x00, 0x00, 0x04, 0x00, 0x00, 0x00, 0x08, 0x00, 0x00, 0x00,
  0x64, 0x65, 0x6e, 0x73, 0x65, 0x5f, 0x39, 0x38, 0x00, 0x00, 0x00, 0x00,
  0x01, 0x00, 0x00, 0x00, 0x04, 0x00, 0x00, 0x00, 0x82, 0xf7, 0xff, 0xff,
  0x04, 0x00, 0x00, 0x00, 0x0e, 0x00, 0x00, 0x00, 0x64, 0x65, 0x6e, 0x73,
  0x65, 0x5f, 0x39, 0x36, 0x5f, 0x69, 0x6e, 0x70, 0x75, 0x74, 0x00, 0x00,
  0x02, 0x00, 0x00, 0x00, 0x34, 0x00, 0x00, 0x00, 0x04, 0x00, 0x00, 0x00,
  0xdc, 0xff, 0xff, 0xff, 0x0d, 0x00, 0x00, 0x00, 0x04, 0x00, 0x00, 0x00,
  0x13, 0x00, 0x00, 0x00, 0x43, 0x4f, 0x4e, 0x56, 0x45, 0x52, 0x53, 0x49,
  0x4f, 0x4e, 0x5f, 0x4d, 0x45, 0x54, 0x41, 0x44, 0x41, 0x54, 0x41, 0x00,
  0x08, 0x00, 0x0c, 0x00, 0x08, 0x00, 0x04, 0x00, 0x08, 0x00, 0x00, 0x00,
  0x0c, 0x00, 0x00, 0x00, 0x04, 0x00, 0x00, 0x00, 0x13, 0x00, 0x00, 0x00,
  0x6d, 0x69, 0x6e, 0x5f, 0x72, 0x75, 0x6e, 0x74, 0x69, 0x6d, 0x65, 0x5f,
  0x76, 0x65, 0x72, 0x73, 0x69, 0x6f, 0x6e, 0x00, 0x0e, 0x00, 0x00, 0x00,
  0x70, 0x07, 0x00, 0x00, 0x68, 0x07, 0x00, 0x00, 0x4c, 0x07, 0x00, 0x00,
  0x0c, 0x07, 0x00, 0x00, 0xbc, 0x06, 0x00, 0x00, 0xac, 0x04, 0x00, 0x00,
  0x1c, 0x04, 0x00, 0x00, 0xac, 0x00, 0x00, 0x00, 0xa4, 0x00, 0x00, 0x00,
  0x9c, 0x00, 0x00, 0x00, 0x94, 0x00, 0x00, 0x00, 0x8c, 0x00, 0x00, 0x00,
  0x6c, 0x00, 0x00, 0x00, 0x04, 0x00, 0x00, 0x00, 0x36, 0xf8, 0xff, 0xff,
  0x04, 0x00, 0x00, 0x00, 0x58, 0x00, 0x00, 0x00, 0x0c, 0x00, 0x00, 0x00,
  0x08, 0x00, 0x0e, 0x00, 0x08, 0x00, 0x04, 0x00, 0x08, 0x00, 0x00, 0x00,
  0x10, 0x00, 0x00, 0x00, 0x28, 0x00, 0x00, 0x00, 0x00, 0x00, 0x06, 0x00,
  0x08, 0x00, 0x04, 0x00, 0x06, 0x00, 0x00, 0x00, 0x04, 0x00, 0x00, 0x00,
  0x01, 0x00, 0x00, 0x00, 0xeb, 0x03, 0x00, 0x00, 0x00, 0x00, 0x0a, 0x00,
  0x10, 0x00, 0x0c, 0x00, 0x08, 0x00, 0x04, 0x00, 0x0a, 0x00, 0x00, 0x00,
  0x02, 0x00, 0x00, 0x00, 0x02, 0x00, 0x00, 0x00, 0x04, 0x00, 0x00, 0x00,
  0x06, 0x00, 0x00, 0x00, 0x32, 0x2e, 0x31, 0x30, 0x2e, 0x30, 0x00, 0x00,
  0x9a, 0xf8, 0xff, 0xff, 0x04, 0x00, 0x00, 0x00, 0x10, 0x00, 0x00, 0x00,
  0x31, 0x2e, 0x31, 0x34, 0x2e, 0x30, 0x00, 0x00, 0x00, 0x00, 0x00, 0x00,
  0x00, 0x00, 0x00, 0x00, 0x84, 0xf8, 0xff, 0xff, 0x88, 0xf8, 0xff, 0xff,
  0x8c, 0xf8, 0xff, 0xff, 0x90, 0xf8, 0xff, 0xff, 0xc6, 0xf8, 0xff, 0xff,
  0x04, 0x00, 0x00, 0x00, 0x60, 0x03, 0x00, 0x00, 0xc8, 0x57, 0xa8, 0xf1,
  0x62, 0x3e, 0xe6, 0x3e, 0x0a, 0x0d, 0x2f, 0x6c, 0xf5, 0xe3, 0x2a, 0x3b,
  0xe3, 0xfa, 0x02, 0xd8, 0xb1, 0x08, 0x12, 0x35, 0xf1, 0xf2, 0xb3, 0xdb,
  0x02, 0x24, 0xd8, 0x0a, 0xdc, 0x42, 0x2d, 0xfe, 0x65, 0x02, 0x2a, 0xd6,
  0xcb, 0x48, 0xd5, 0x3d, 0x49, 0x8d, 0xef, 0xe6, 0xaa, 0x2c, 0x12, 0xff,
  0xfd, 0xc8, 0x93, 0x18, 0xeb, 0x2c, 0x01, 0xb8, 0xd7, 0x6f, 0x46, 0xf6,
  0x2c, 0x22, 0x03, 0xb9, 0xfd, 0xfc, 0xb0, 0xf2, 0x44, 0xbd, 0x1b, 0x3d,
  0xfd, 0x90, 0x08, 0xe4, 0x2d, 0x23, 0x30, 0xa8, 0xf9, 0xd1, 0xd0, 0x69,
  0x01, 0x2c, 0x35, 0xe0, 0xb4, 0xd5, 0x27, 0x9b, 0x19, 0x02, 0xc6, 0x12,
  0x24, 0x06, 0x4a, 0xd3, 0xf5, 0x21, 0xe3, 0x17, 0x01, 0xe4, 0xce, 0x3d,
  0x46, 0x98, 0xc6, 0xff, 0xbe, 0x1f, 0xd1, 0xc0, 0xb5, 0x09, 0xd5, 0xb8,
  0x17, 0x4f, 0x0a, 0x8e, 0xc8, 0x03, 0x05, 0x51, 0xbc, 0x0e, 0x03, 0xaf,
  0x40, 0xe9, 0xc4, 0x1d, 0x43, 0x0b, 0xff, 0xca, 0x08, 0xf6, 0xad, 0x61,
  0x05, 0xef, 0x08, 0xc6, 0x22, 0x25, 0xe3, 0x07, 0x42, 0x21, 0x06, 0xb6,
  0xf1, 0xf6, 0xfd, 0xca, 0xd8, 0x5a, 0xb1, 0x05, 0xf4, 0xd4, 0x37, 0x98,
  0x3d, 0xf9, 0x41, 0xd1, 0x13, 0xd8, 0xf0, 0x09, 0x05, 0x02, 0xfb, 0xf1,
  0x15, 0xe3, 0xcf, 0xe5, 0xc6, 0xd0, 0xac, 0xe9, 0xe6, 0xa8, 0xe7, 0xf2,
  0x1d, 0x1f, 0x5b, 0xf1, 0xee, 0xff, 0xf6, 0xda, 0xd6, 0x28, 0x43, 0x1b,
  0xff, 0x2f, 0x28, 0x01, 0x0b, 0x04, 0x24, 0xb1, 0xcd, 0xd7, 0x5f, 0xcd,
  0x33, 0xdd, 0x34, 0x3a, 0xda, 0x23, 0x32, 0x0d, 0xd5, 0xe0, 0xd8, 0x10,
  0x26, 0x9f, 0x37, 0x17, 0xe4, 0x52, 0xd5, 0xb0, 0xf0, 0xe8, 0xea, 0xd6,
  0xe8, 0x17, 0xfc, 0x01, 0x47, 0xf0, 0x0f, 0x3f, 0xc7, 0x27, 0xf6, 0x08,
  0x9a, 0x09, 0x1a, 0x68, 0x01, 0x3c, 0xfd, 0x27, 0xc8, 0x3b, 0x1f, 0xf2,
  0xf0, 0xf9, 0xa4, 0xe8, 0x33, 0x14, 0x67, 0xc1, 0xd7, 0x66, 0xb4, 0xb9,
  0xc5, 0x1a, 0xbd, 0x28, 0xf5, 0xa1, 0x5f, 0x3d, 0xed, 0xec, 0xe6, 0x4f,
  0x17, 0xf4, 0xcc, 0x30, 0x99, 0xc6, 0x5f, 0xe6, 0xd4, 0xe2, 0x35, 0xcb,
  0x21, 0xe1, 0x38, 0x16, 0xdb, 0xa6, 0xb8, 0xc7, 0x63, 0xbc, 0xcb, 0xfb,
  0xb0, 0xd5, 0x35, 0xc7, 0xf3, 0x0d, 0x32, 0xfa, 0xbf, 0x15, 0xbf, 0x1d,
  0x03, 0xfd, 0x09, 0xd1, 0x4c, 0x1f, 0xb7, 0x29, 0xc1, 0xa5, 0x05, 0x3d,
  0xc4, 0xe7, 0x74, 0xba, 0x47, 0x56, 0x01, 0x97, 0xd4, 0x05, 0x3f, 0xf3,
  0x31, 0xfc, 0x04, 0x9e, 0xf6, 0x12, 0x1d, 0x25, 0xc7, 0x39, 0xd8, 0xa4,
  0x24, 0xed, 0xcf, 0x02, 0x59, 0x15, 0xec, 0x99, 0x04, 0xb1, 0x3c, 0x0c,
  0x5f, 0xd2, 0xe4, 0x44, 0xc3, 0x2b, 0xd6, 0x4d, 0x4e, 0x3d, 0x24, 0xed,
  0x18, 0xfb, 0x55, 0x13, 0xfa, 0xeb, 0x36, 0x14, 0xa5, 0x39, 0xd3, 0x5b,
  0x11, 0xd8, 0x22, 0x24, 0xd3, 0x5b, 0xb6, 0x51, 0xee, 0x30, 0xf6, 0x1c,
  0x6b, 0xf3, 0xfa, 0x67, 0x9f, 0x5e, 0xd9, 0xef, 0xff, 0x00, 0xd3, 0x20,
  0xcf, 0x07, 0x11, 0x24, 0x3a, 0xe4, 0x36, 0x3a, 0xdf, 0xd6, 0xf9, 0xcd,
  0x8a, 0xfb, 0xbd, 0x28, 0x54, 0xd5, 0xe1, 0x0f, 0xca, 0x55, 0xe9, 0xf4,
  0xac, 0x21, 0xe7, 0x06, 0x51, 0x28, 0xdf, 0x81, 0xd7, 0x3a, 0xe3, 0x1d,
  0xd1, 0xeb, 0x37, 0x35, 0x3a, 0x3c, 0xe6, 0x2b, 0x27, 0x0a, 0x10, 0xcd,
  0x42, 0x38, 0x0b, 0x23, 0x02, 0xd1, 0x1d, 0x05, 0x1d, 0xf8, 0xe3, 0x16,
  0x0d, 0xeb, 0xa7, 0xb9, 0x5d, 0x6c, 0x79, 0xc0, 0x28, 0x35, 0xde, 0xc6,
  0xda, 0x11, 0x0c, 0xd0, 0x1f, 0xd7, 0x43, 0x52, 0x1c, 0x44, 0xaa, 0xc5,
  0x23, 0xe1, 0xf0, 0x15, 0xd4, 0x0d, 0x5c, 0x96, 0x1f, 0x84, 0xe8, 0x04,
  0x55, 0xb2, 0xde, 0x33, 0xa8, 0x13, 0x12, 0x31, 0x50, 0x98, 0x2f, 0xa9,
  0xee, 0xf9, 0x16, 0xcd, 0x0c, 0x0e, 0x0a, 0x1c, 0xad, 0xf0, 0xc9, 0x3d,
  0xe7, 0xb3, 0xc3, 0x0d, 0x3c, 0x0b, 0x71, 0x0f, 0x99, 0x4f, 0xd5, 0xbf,
  0xf7, 0xcf, 0xf0, 0x18, 0x9d, 0x13, 0xd8, 0xf9, 0xba, 0x1b, 0xca, 0x1c,
  0xcc, 0x3c, 0x01, 0x50, 0x92, 0xeb, 0x06, 0xef, 0xef, 0x70, 0x26, 0xfa,
  0x14, 0x27, 0xfc, 0x01, 0x4c, 0x08, 0xf3, 0xfe, 0x1f, 0x3d, 0xe7, 0xba,
  0xb5, 0x0d, 0x54, 0xdb, 0x43, 0xf9, 0xf7, 0x6a, 0x15, 0x0e, 0xb6, 0x10,
  0xf7, 0xe1, 0xc4, 0x15, 0xfb, 0x20, 0xc7, 0x32, 0xe9, 0x41, 0x04, 0xd8,
  0xe7, 0xee, 0x91, 0xe2, 0x06, 0xbe, 0xcc, 0x38, 0x4d, 0x21, 0xbd, 0xe1,
  0xfa, 0x22, 0xd0, 0xfb, 0xe2, 0x67, 0x0a, 0xe8, 0xed, 0xe5, 0xa8, 0xab,
  0x11, 0xff, 0x2e, 0xe6, 0xfe, 0x14, 0xf2, 0x3a, 0x0e, 0x00, 0xf1, 0x27,
  0x12, 0xde, 0x06, 0x0d, 0x01, 0x27, 0xc3, 0xdf, 0xe3, 0xd8, 0x08, 0x28,
  0x39, 0x36, 0xfc, 0x50, 0x50, 0x42, 0x9f, 0xaf, 0x0b, 0x2e, 0xcd, 0xe5,
  0x0e, 0x08, 0xfd, 0xf1, 0xf2, 0xcf, 0xf7, 0xe2, 0xf9, 0x1b, 0xdf, 0x6a,
  0xe9, 0x1d, 0x31, 0xb7, 0xff, 0xfa, 0x1c, 0xd6, 0x23, 0x07, 0xa2, 0x08,
  0xf6, 0x3a, 0x68, 0x9b, 0xc4, 0xea, 0x3e, 0xcd, 0xfe, 0x18, 0xd4, 0xca,
  0x4a, 0x1a, 0x06, 0x18, 0x38, 0xd8, 0xcd, 0x29, 0x1c, 0x00, 0x20, 0xc9,
  0xf6, 0xd8, 0xce, 0xf7, 0xd3, 0xae, 0x2f, 0xea, 0xe7, 0x3f, 0xd8, 0xdc,
  0xbb, 0x42, 0xdb, 0xc0, 0xff, 0xf7, 0x32, 0xfb, 0xc0, 0x1b, 0xac, 0x90,
  0xd4, 0xed, 0x0b, 0x01, 0xa2, 0xf3, 0x3d, 0x41, 0xc0, 0x23, 0xf0, 0x32,
  0xfa, 0xc6, 0xf9, 0xed, 0x09, 0xe9, 0x2e, 0xff, 0xfb, 0x08, 0xdd, 0x0a,
  0xd1, 0x10, 0x04, 0x07, 0xcd, 0xdb, 0xe4, 0x51, 0xe2, 0x0b, 0x4f, 0x44,
  0x23, 0x09, 0x2b, 0xb2, 0x16, 0xf4, 0x46, 0x0b, 0x40, 0x26, 0x9a, 0x16,
  0xe7, 0x25, 0xb5, 0xc7, 0xe2, 0x95, 0xfb, 0x1c, 0x20, 0xa8, 0xba, 0xf1,
  0xf7, 0x06, 0xdc, 0x05, 0xda, 0xc4, 0xd7, 0x02, 0xf8, 0xb0, 0x2b, 0xe1,
  0x21, 0x51, 0xdc, 0xef, 0x36, 0xd3, 0x35, 0xbb, 0xe4, 0xf6, 0x39, 0x98,
  0xf6, 0xe8, 0x0a, 0xe0, 0x74, 0xbb, 0xae, 0x22, 0x91, 0x98, 0xa8, 0x05,
  0xc8, 0xc8, 0x37, 0x31, 0xf4, 0x1f, 0xf7, 0xef, 0x35, 0xf6, 0x34, 0xcf,
  0xe4, 0xa7, 0x4d, 0xe1, 0x3a, 0xeb, 0x40, 0x2f, 0x32, 0xfc, 0xff, 0xff,
  0x04, 0x00, 0x00, 0x00, 0x80, 0x00, 0x00, 0x00, 0x00, 0x00, 0x00, 0x00,
  0x00, 0x00, 0x00, 0x00, 0x00, 0x00, 0x00, 0x00, 0x00, 0x00, 0x00, 0x00,
  0x00, 0x00, 0x00, 0x00, 0x00, 0x00, 0x00, 0x00, 0x00, 0x00, 0x00, 0x00,
  0x00, 0x00, 0x00, 0x00, 0x00, 0x00, 0x00, 0x00, 0x00, 0x00, 0x00, 0x00,
  0x00, 0x00, 0x00, 0x00, 0x00, 0x00, 0x00, 0x00, 0x00, 0x00, 0x00, 0x00,
  0x00, 0x00, 0x00, 0x00, 0x00, 0x00, 0x00, 0x00, 0x00, 0x00, 0x00, 0x00,
  0x00, 0x00, 0x00, 0x00, 0x00, 0x00, 0x00, 0x00, 0x00, 0x00, 0x00, 0x00,
  0x00, 0x00, 0x00, 0x00, 0x00, 0x00, 0x00, 0x00, 0x00, 0x00, 0x00, 0x00,
  0x00, 0x00, 0x00, 0x00, 0x00, 0x00, 0x00, 0x00, 0x00, 0x00, 0x00, 0x00,
  0x00, 0x00, 0x00, 0x00, 0x00, 0x00, 0x00, 0x00, 0x00, 0x00, 0x00, 0x00,
  0x00, 0x00, 0x00, 0x00, 0x00, 0x00, 0x00, 0x00, 0x00, 0x00, 0x00, 0x00,
  0x00, 0x00, 0x00, 0x00, 0xbe, 0xfc, 0xff, 0xff, 0x04, 0x00, 0x00, 0x00,
  0x00, 0x02, 0x00, 0x00, 0x00, 0xf8, 0x01, 0x21, 0xe4, 0x30, 0x8f, 0xc9,
  0x0a, 0xdb, 0xcb, 0x33, 0x12, 0x46, 0x13, 0xe3, 0x01, 0xfa, 0xf7, 0xe3,
  0xf9, 0x16, 0x1a, 0xcc, 0x06, 0x39, 0xc7, 0xe9, 0xf8, 0xf9, 0xf7, 0x12,
  0x07, 0x0d, 0xe7, 0x14, 0x29, 0x3b, 0xa4, 0x18, 0x28, 0x26, 0xbf, 0xf0,
  0xfa, 0x3f, 0xfa, 0xf3, 0xbf, 0xe5, 0xbf, 0x43, 0x00, 0xcd, 0x2a, 0x27,
  0x1b, 0xec, 0xf2, 0xf3, 0x26, 0xf2, 0x19, 0xe3, 0xed, 0x04, 0x1b, 0x2d,
  0xfc, 0x18, 0xf4, 0xc0, 0x1e, 0x37, 0xff, 0x2d, 0x23, 0xeb, 0x0b, 0xe6,
  0xca, 0x07, 0xde, 0x02, 0x2c, 0x11, 0xe4, 0xf7, 0xd5, 0xfe, 0xe5, 0xe4,
  0x0b, 0xfa, 0xd4, 0x05, 0xf2, 0x26, 0xfe, 0x49, 0xbc, 0xcf, 0x4f, 0xac,
  0x09, 0xb5, 0xcc, 0x0c, 0x19, 0xd8, 0xea, 0xec, 0x23, 0xd9, 0xd2, 0x27,
  0x26, 0xf8, 0xda, 0xf6, 0x1e, 0xf8, 0x02, 0xdc, 0x0e, 0x0e, 0xed, 0xe0,
  0x1b, 0xfe, 0x20, 0xed, 0x07, 0xf5, 0x88, 0x28, 0xad, 0x3b, 0x16, 0xf8,
  0x27, 0x11, 0x19, 0xff, 0x11, 0xf9, 0xfd, 0x24, 0x0f, 0xf5, 0x3c, 0x03,
  0xc1, 0xe6, 0x13, 0xfa, 0xda, 0x1e, 0x03, 0xf3, 0x1a, 0x1b, 0x36, 0xde,
  0xe2, 0xf0, 0x06, 0x1e, 0xd9, 0x25, 0x13, 0x32, 0xfd, 0xd2, 0xfa, 0x03,
  0xf9, 0xf6, 0xf5, 0x1b, 0xf7, 0x3f, 0xd6, 0x10, 0x19, 0xb9, 0x23, 0xd0,
  0xed, 0xf0, 0xed, 0x19, 0xf1, 0x03, 0xeb, 0xf7, 0xfe, 0x1d, 0x45, 0x87,
  0xe2, 0xe8, 0x0d, 0x2f, 0x0d, 0xf9, 0x09, 0xdd, 0xfa, 0x04, 0x0f, 0x18,
  0xf3, 0xe5, 0x13, 0xa2, 0x3a, 0xf8, 0xe7, 0x0d, 0xc7, 0xf3, 0x2b, 0xde,
  0x08, 0x3e, 0xf2, 0xf5, 0x0b, 0xea, 0x29, 0x58, 0xe5, 0xf4, 0xda, 0x40,
  0xf7, 0x10, 0xf7, 0xcf, 0xf4, 0x02, 0xda, 0x25, 0x13, 0x27, 0x11, 0xea,
  0x0d, 0xc9, 0x13, 0x07, 0xcd, 0xe9, 0xf8, 0xde, 0xf7, 0xf6, 0xf9, 0x3c,
  0xdc, 0xd8, 0x7f, 0xf5, 0x1b, 0x0d, 0x1c, 0xcc, 0xfd, 0xdf, 0x05, 0xfc,
  0xc1, 0x1b, 0xce, 0x31, 0x0f, 0xe8, 0x08, 0x08, 0xc0, 0xde, 0xfe, 0x06,
  0x03, 0x24, 0xd7, 0xea, 0x19, 0xec, 0x1a, 0xc3, 0x14, 0xdf, 0x64, 0xd0,
  0xf0, 0xf5, 0xd4, 0xcb, 0xe1, 0xbd, 0x00, 0xf4, 0xf6, 0x06, 0x21, 0x2f,
  0xf0, 0x09, 0xfe, 0x27, 0xeb, 0xec, 0x26, 0x09, 0x10, 0x00, 0x1a, 0x1f,
  0x20, 0x0a, 0x1e, 0xbc, 0x3e, 0x03, 0xef, 0x05, 0x3d, 0x62, 0xc1, 0xec,
  0x2c, 0x19, 0xfe, 0x11, 0x30, 0x22, 0xfe, 0xc9, 0x2c, 0xea, 0xb5, 0x16,
  0x42, 0xa7, 0x0a, 0x1d, 0x05, 0xfc, 0x1f, 0xcb, 0xea, 0x13, 0x30, 0xf9,
  0x04, 0xd7, 0x23, 0xdd, 0x29, 0x36, 0xf8, 0xcd, 0x07, 0x23, 0xf8, 0xed,
  0x07, 0x20, 0x2b, 0xfd, 0xe4, 0xd9, 0xd0, 0x0a, 0x48, 0x19, 0xda, 0xed,
  0xf6, 0x00, 0xef, 0x1d, 0xe4, 0xe6, 0xdc, 0x22, 0xe8, 0xf1, 0xe2, 0xc6,
  0x0c, 0xec, 0x13, 0x21, 0xf2, 0xfa, 0x0e, 0x0a, 0x08, 0xe0, 0xde, 0xe4,
  0x1b, 0xd5, 0xea, 0xbc, 0xff, 0x1f, 0x0b, 0x18, 0xd8, 0x16, 0xd4, 0xf5,
  0xfc, 0x1e, 0x13, 0xc4, 0xe3, 0xde, 0xda, 0xfa, 0xb9, 0xd4, 0xd4, 0x2f,
  0xf9, 0x02, 0x11, 0xd4, 0xe5, 0x2a, 0x02, 0x10, 0x01, 0x05, 0x28, 0xde,
  0x20, 0x1f, 0x22, 0x01, 0xe4, 0xed, 0x09, 0x00, 0xff, 0xee, 0xef, 0xf4,
  0x17, 0x1a, 0xf2, 0x97, 0xde, 0x11, 0xea, 0x15, 0x0f, 0xfa, 0xf2, 0xfc,
  0x28, 0x0e, 0xfc, 0xca, 0xfe, 0xd4, 0x40, 0xec, 0xff, 0x0a, 0xe9, 0xd2,
  0xdc, 0xe4, 0xf6, 0x09, 0x00, 0xf6, 0x27, 0xf6, 0x01, 0xfe, 0xa0, 0x0c,
  0xf9, 0x40, 0x1a, 0x10, 0x28, 0x0a, 0xf3, 0x02, 0xcc, 0xda, 0xce, 0x25,
  0xf3, 0xf4, 0xf0, 0x36, 0xdb, 0x1d, 0xdf, 0x00, 0xea, 0x16, 0xdc, 0xde,
  0xca, 0xfe, 0xff, 0xff, 0x04, 0x00, 0x00, 0x00, 0x40, 0x00, 0x00, 0x00,
  0x02, 0x00, 0x00, 0x00, 0x00, 0x00, 0x00, 0x00, 0x01, 0x00, 0x00, 0x00,
  0x04, 0x00, 0x00, 0x00, 0xfe, 0xff, 0xff, 0xff, 0x00, 0x00, 0x00, 0x00,
  0x02, 0x00, 0x00, 0x00, 0x01, 0x00, 0x00, 0x00, 0x02, 0x00, 0x00, 0x00,
  0x00, 0x00, 0x00, 0x00, 0xfd, 0xff, 0xff, 0xff, 0xff, 0xff, 0xff, 0xff,
  0x04, 0x00, 0x00, 0x00, 0x02, 0x00, 0x00, 0x00, 0x03, 0x00, 0x00, 0x00,
  0x02, 0x00, 0x00, 0x00, 0x16, 0xff, 0xff, 0xff, 0x04, 0x00, 0x00, 0x00,
  0x30, 0x00, 0x00, 0x00, 0x15, 0x4b, 0xd5, 0xbb, 0xeb, 0x34, 0x5a, 0x37,
  0x53, 0x2a, 0xfa, 0x3f, 0x58, 0x27, 0x15, 0xec, 0x0d, 0x0a, 0xf8, 0x20,
  0x3f, 0x41, 0x08, 0xb5, 0x20, 0xf1, 0xeb, 0xbf, 0x17, 0x04, 0x11, 0x30,
  0x35, 0xcd, 0xb6, 0x39, 0xbf, 0xde, 0x23, 0xe5, 0xbf, 0x46, 0x1e, 0x3f,
  0x7f, 0x63, 0x3c, 0x19, 0x52, 0xff, 0xff, 0xff, 0x04, 0x00, 0x00, 0x00,
  0x0c, 0x00, 0x00, 0x00, 0xfb, 0xff, 0xff, 0xff, 0xff, 0xff, 0xff, 0xff,
  0xfd, 0xff, 0xff, 0xff, 0x38, 0xff, 0xff, 0xff, 0x3c, 0xff, 0xff, 0xff,
  0x0f, 0x00, 0x00, 0x00, 0x4d, 0x4c, 0x49, 0x52, 0x20, 0x43, 0x6f, 0x6e,
  0x76, 0x65, 0x72, 0x74, 0x65, 0x64, 0x2e, 0x00, 0x01, 0x00, 0x00, 0x00,
  0x14, 0x00, 0x00, 0x00, 0x00, 0x00, 0x0e, 0x00, 0x18, 0x00, 0x14, 0x00,
  0x10, 0x00, 0x0c, 0x00, 0x08, 0x00, 0x04, 0x00, 0x0e, 0x00, 0x00, 0x00,
  0x14, 0x00, 0x00, 0x00, 0x1c, 0x00, 0x00, 0x00, 0x28, 0x01, 0x00, 0x00,
  0x2c, 0x01, 0x00, 0x00, 0x30, 0x01, 0x00, 0x00, 0x04, 0x00, 0x00, 0x00,
  0x6d, 0x61, 0x69, 0x6e, 0x00, 0x00, 0x00, 0x00, 0x04, 0x00, 0x00, 0x00,
  0xd0, 0x00, 0x00, 0x00, 0x88, 0x00, 0x00, 0x00, 0x50, 0x00, 0x00, 0x00,
  0x14, 0x00, 0x00, 0x00, 0x00, 0x00, 0x0e, 0x00, 0x1a, 0x00, 0x14, 0x00,
  0x10, 0x00, 0x0c, 0x00, 0x0b, 0x00, 0x04, 0x00, 0x0e, 0x00, 0x00, 0x00,
  0x1c, 0x00, 0x00, 0x00, 0x00, 0x00, 0x00, 0x09, 0x1c, 0x00, 0x00, 0x00,
  0x20, 0x00, 0x00, 0x00, 0x01, 0x00, 0x00, 0x00, 0x00, 0x00, 0x06, 0x00,
  0x08, 0x00, 0x04, 0x00, 0x06, 0x00, 0x00, 0x00, 0x00, 0x00, 0x80, 0x3f,
  0x01, 0x00, 0x00, 0x00, 0x0a, 0x00, 0x00, 0x00, 0x01, 0x00, 0x00, 0x00,
  0x09, 0x00, 0x00, 0x00, 0x96, 0xff, 0xff, 0xff, 0x14, 0x00, 0x00, 0x00,
  0x00, 0x00, 0x00, 0x08, 0x10, 0x00, 0x00, 0x00, 0x14, 0x00, 0x00, 0x00,
  0x04, 0x00, 0x04, 0x00, 0x04, 0x00, 0x00, 0x00, 0x01, 0x00, 0x00, 0x00,
  0x09, 0x00, 0x00, 0x00, 0x03, 0x00, 0x00, 0x00, 0x08, 0x00, 0x00, 0x00,
  0x02, 0x00, 0x00, 0x00, 0x01, 0x00, 0x00, 0x00, 0xca, 0xff, 0xff, 0xff,
  0x10, 0x00, 0x00, 0x00, 0x00, 0x00, 0x00, 0x08, 0x10, 0x00, 0x00, 0x00,
  0x14, 0x00, 0x00, 0x00, 0xba, 0xff, 0xff, 0xff, 0x00, 0x00, 0x00, 0x01,
  0x01, 0x00, 0x00, 0x00, 0x08, 0x00, 0x00, 0x00, 0x03, 0x00, 0x00, 0x00,
  0x07, 0x00, 0x00, 0x00, 0x04, 0x00, 0x00, 0x00, 0x03, 0x00, 0x00, 0x00,
  0x00, 0x00, 0x0e, 0x00, 0x16, 0x00, 0x00, 0x00, 0x10, 0x00, 0x0c, 0x00,
  0x0b, 0x00, 0x04, 0x00, 0x0e, 0x00, 0x00, 0x00, 0x18, 0x00, 0x00, 0x00,
  0x00, 0x00, 0x00, 0x08, 0x18, 0x00, 0x00, 0x00, 0x1c, 0x00, 0x00, 0x00,
  0x00, 0x00, 0x06, 0x00, 0x08, 0x00, 0x07, 0x00, 0x06, 0x00, 0x00, 0x00,
  0x00, 0x00, 0x00, 0x01, 0x01, 0x00, 0x00, 0x00, 0x07, 0x00, 0x00, 0x00,
  0x03, 0x00, 0x00, 0x00, 0x00, 0x00, 0x00, 0x00, 0x06, 0x00, 0x00, 0x00,
  0x05, 0x00, 0x00, 0x00, 0x01, 0x00, 0x00, 0x00, 0x0a, 0x00, 0x00, 0x00,
  0x01, 0x00, 0x00, 0x00, 0x00, 0x00, 0x00, 0x00, 0x0b, 0x00, 0x00, 0x00,
  0xd8, 0x07, 0x00, 0x00, 0x30, 0x07, 0x00, 0x00, 0x1c, 0x06, 0x00, 0x00,
  0x70, 0x05, 0x00, 0x00, 0x5c, 0x04, 0x00, 0x00, 0xe0, 0x03, 0x00, 0x00,
  0x6c, 0x03, 0x00, 0x00, 0xb0, 0x02, 0x00, 0x00, 0x8c, 0x01, 0x00, 0x00,
  0x80, 0x00, 0x00, 0x00, 0x04, 0x00, 0x00, 0x00, 0x6a, 0xf8, 0xff, 0xff,
  0x00, 0x00, 0x00, 0x01, 0x18, 0x00, 0x00, 0x00, 0x20, 0x00, 0x00, 0x00,
  0x3c, 0x00, 0x00, 0x00, 0x0b, 0x00, 0x00, 0x00, 0x00, 0x00, 0x00, 0x09,
  0x50, 0x00, 0x00, 0x00, 0x02, 0x00, 0x00, 0x00, 0xff, 0xff, 0xff, 0xff,
  0x03, 0x00, 0x00, 0x00, 0x54, 0xf8, 0xff, 0xff, 0x08, 0x00, 0x00, 0x00,
  0x10, 0x00, 0x00, 0x00, 0x01, 0x00, 0x00, 0x00, 0x80, 0xff, 0xff, 0xff,
  0xff, 0xff, 0xff, 0xff, 0x01, 0x00, 0x00, 0x00, 0x00, 0x00, 0x80, 0x3b,
  0x19, 0x00, 0x00, 0x00, 0x53, 0x74, 0x61, 0x74, 0x65, 0x66, 0x75, 0x6c,
  0x50, 0x61, 0x72, 0x74, 0x69, 0x74, 0x69, 0x6f, 0x6e, 0x65, 0x64, 0x43,
  0x61, 0x6c, 0x6c, 0x3a, 0x30, 0x00, 0x00, 0x00, 0x02, 0x00, 0x00, 0x00,
  0x01, 0x00, 0x00, 0x00, 0x03, 0x00, 0x00, 0x00, 0xe2, 0xf8, 0xff, 0xff,
  0x00, 0x00, 0x00, 0x01, 0x18, 0x00, 0x00, 0x00, 0x20, 0x00, 0x00, 0x00,
  0x40, 0x00, 0x00, 0x00, 0x0a, 0x00, 0x00, 0x00, 0x00, 0x00, 0x00, 0x09,
  0xe0, 0x00, 0x00, 0x00, 0x02, 0x00, 0x00, 0x00, 0xff, 0xff, 0xff, 0xff,
  0x03, 0x00, 0x00, 0x00, 0xcc, 0xf8, 0xff, 0xff, 0x08, 0x00, 0x00, 0x00,
  0x14, 0x00, 0x00, 0x00, 0x01, 0x00, 0x00, 0x00, 0xb2, 0xff, 0xff, 0xff,
  0xff, 0xff, 0xff, 0xff, 0x00, 0x00, 0x00, 0x00, 0x01, 0x00, 0x00, 0x00,
  0x59, 0x26, 0xef, 0x41, 0xa7, 0x00, 0x00, 0x00, 0x73, 0x65, 0x71, 0x75,
  0x65, 0x6e, 0x74, 0x69, 0x61, 0x6c, 0x5f, 0x33, 0x32, 0x2f, 0x62, 0x61,
  0x74, 0x63, 0x68, 0x5f, 0x6e, 0x6f, 0x72, 0x6d, 0x61, 0x6c, 0x69, 0x7a,
  0x61, 0x74, 0x69, 0x6f, 0x6e, 0x5f, 0x36, 0x35, 0x2f, 0x62, 0x61, 0x74,
  0x63, 0x68, 0x6e, 0x6f, 0x72, 0x6d, 0x2f, 0x6d, 0x75, 0x6c, 0x5f, 0x31,
  0x3b, 0x73, 0x65, 0x71, 0x75, 0x65, 0x6e, 0x74, 0x69, 0x61, 0x6c, 0x5f,
  0x33, 0x32, 0x2f, 0x62, 0x61, 0x74, 0x63, 0x68, 0x5f, 0x6e, 0x6f, 0x72,
  0x6d, 0x61, 0x6c, 0x69, 0x7a, 0x61, 0x74, 0x69, 0x6f, 0x6e, 0x5f, 0x36,
  0x35, 0x2f, 0x62, 0x61, 0x74, 0x63, 0x68, 0x6e, 0x6f, 0x72, 0x6d, 0x2f,
  0x61, 0x64, 0x64, 0x5f, 0x31, 0x3b, 0x73, 0x65, 0x71, 0x75, 0x65, 0x6e,
  0x74, 0x69, 0x61, 0x6c, 0x5f, 0x33, 0x32, 0x2f, 0x64, 0x65, 0x6e, 0x73,
  0x65, 0x5f, 0x39, 0x38, 0x2f, 0x4d, 0x61, 0x74, 0x4d, 0x75, 0x6c, 0x3b,
  0x73, 0x65, 0x71, 0x75, 0x65, 0x6e, 0x74, 0x69, 0x61, 0x6c, 0x5f, 0x33,
  0x32, 0x2f, 0x64, 0x65, 0x6e, 0x73, 0x65, 0x5f, 0x39, 0x38, 0x2f, 0x42,
  0x69, 0x61, 0x73, 0x41, 0x64, 0x64, 0x31, 0x00, 0x02, 0x00, 0x00, 0x00,
  0x01, 0x00, 0x00, 0x00, 0x03, 0x00, 0x00, 0x00, 0xea, 0xf9, 0xff, 0xff,
  0x00, 0x00, 0x00, 0x01, 0x18, 0x00, 0x00, 0x00, 0x20, 0x00, 0x00, 0x00,
  0x3c, 0x00, 0x00, 0x00, 0x09, 0x00, 0x00, 0x00, 0x00, 0x00, 0x00, 0x09,
  0xf8, 0x00, 0x00, 0x00, 0x02, 0x00, 0x00, 0x00, 0xff, 0xff, 0xff, 0xff,
  0x10, 0x00, 0x00, 0x00, 0xd4, 0xf9, 0xff, 0xff, 0x08, 0x00, 0x00, 0x00,
  0x10, 0x00, 0x00, 0x00, 0x01, 0x00, 0x00, 0x00, 0x80, 0xff, 0xff, 0xff,
  0xff, 0xff, 0xff, 0xff, 0x01, 0x00, 0x00, 0x00, 0xa0, 0x2b, 0x40, 0x42,
  0xc3, 0x00, 0x00, 0x00, 0x73, 0x65, 0x71, 0x75, 0x65, 0x6e, 0x74, 0x69,
  0x61, 0x6c, 0x5f, 0x33, 0x32, 0x2f, 0x62, 0x61, 0x74, 0x63, 0x68, 0x5f,
  0x6e, 0x6f, 0x72, 0x6d, 0x61, 0x6c, 0x69, 0x7a, 0x61, 0x74, 0x69, 0x6f,
  0x6e, 0x5f, 0x36, 0x34, 0x2f, 0x62, 0x61, 0x74, 0x63, 0x68, 0x6e, 0x6f,
  0x72, 0x6d, 0x2f, 0x6d, 0x75, 0x6c, 0x5f, 0x31, 0x3b, 0x73, 0x65, 0x71,
  0x75, 0x65, 0x6e, 0x74, 0x69, 0x61, 0x6c, 0x5f, 0x33, 0x32, 0x2f, 0x62,
  0x61, 0x74, 0x63, 0x68, 0x5f, 0x6e, 0x6f, 0x72, 0x6d, 0x61, 0x6c, 0x69,
  0x7a, 0x61, 0x74, 0x69, 0x6f, 0x6e, 0x5f, 0x36, 0x34, 0x2f, 0x62, 0x61,
  0x74, 0x63, 0x68, 0x6e, 0x6f, 0x72, 0x6d, 0x2f, 0x61, 0x64, 0x64, 0x5f,
  0x31, 0x3b, 0x73, 0x65, 0x71, 0x75, 0x65, 0x6e, 0x74, 0x69, 0x61, 0x6c,
  0x5f, 0x33, 0x32, 0x2f, 0x64, 0x65, 0x6e, 0x73, 0x65, 0x5f, 0x39, 0x37,
  0x2f, 0x4d, 0x61, 0x74, 0x4d, 0x75, 0x6c, 0x3b, 0x73, 0x65, 0x71, 0x75,
  0x65, 0x6e, 0x74, 0x69, 0x61, 0x6c, 0x5f, 0x33, 0x32, 0x2f, 0x64, 0x65,
  0x6e, 0x73, 0x65, 0x5f, 0x39, 0x37, 0x2f, 0x52, 0x65, 0x6c, 0x75, 0x3b,
  0x73, 0x65, 0x71, 0x75, 0x65, 0x6e, 0x74, 0x69, 0x61, 0x6c, 0x5f, 0x33,
  0x32, 0x2f, 0x64, 0x65, 0x6e, 0x73, 0x65, 0x5f, 0x39, 0x37, 0x2f, 0x42,
  0x69, 0x61, 0x73, 0x41, 0x64, 0x64, 0x31, 0x00, 0x02, 0x00, 0x00, 0x00,
  0x01, 0x00, 0x00, 0x00, 0x10, 0x00, 0x00, 0x00, 0x0a, 0xfb, 0xff, 0xff,
  0x00, 0x00, 0x00, 0x01, 0x18, 0x00, 0x00, 0x00, 0x20, 0x00, 0x00, 0x00,
  0x3c, 0x00, 0x00, 0x00, 0x08, 0x00, 0x00, 0x00, 0x00, 0x00, 0x00, 0x09,
  0x90, 0x00, 0x00, 0x00, 0x02, 0x00, 0x00, 0x00, 0xff, 0xff, 0xff, 0xff,
  0x20, 0x00, 0x00, 0x00, 0xf4, 0xfa, 0xff, 0xff, 0x08, 0x00, 0x00, 0x00,
  0x10, 0x00, 0x00, 0x00, 0x01, 0x00, 0x00, 0x00, 0x80, 0xff, 0xff, 0xff,
  0xff, 0xff, 0xff, 0xff, 0x01, 0x00, 0x00, 0x00, 0x66, 0x5d, 0xf7, 0x41,
  0x58, 0x00, 0x00, 0x00, 0x73, 0x65, 0x71, 0x75, 0x65, 0x6e, 0x74, 0x69,
  0x61, 0x6c, 0x5f, 0x33, 0x32, 0x2f, 0x64, 0x65, 0x6e, 0x73, 0x65, 0x5f,
  0x39, 0x36, 0x2f, 0x4d, 0x61, 0x74, 0x4d, 0x75, 0x6c, 0x3b, 0x73, 0x65,
  0x71, 0x75, 0x65, 0x6e, 0x74, 0x69, 0x61, 0x6c, 0x5f, 0x33, 0x32, 0x2f,
  0x64, 0x65, 0x6e, 0x73, 0x65, 0x5f, 0x39, 0x36, 0x2f, 0x52, 0x65, 0x6c,
  0x75, 0x3b, 0x73, 0x65, 0x71, 0x75, 0x65, 0x6e, 0x74, 0x69, 0x61, 0x6c,
  0x5f, 0x33, 0x32, 0x2f, 0x64, 0x65, 0x6e, 0x73, 0x65, 0x5f, 0x39, 0x36,
  0x2f, 0x42, 0x69, 0x61, 0x73, 0x41, 0x64, 0x64, 0x00, 0x00, 0x00, 0x00,
  0x02, 0x00, 0x00, 0x00, 0x01, 0x00, 0x00, 0x00, 0x20, 0x00, 0x00, 0x00,
  0x66, 0xfc, 0xff, 0xff, 0x00, 0x00, 0x00, 0x01, 0x14, 0x00, 0x00, 0x00,
  0x34, 0x00, 0x00, 0x00, 0x07, 0x00, 0x00, 0x00, 0x00, 0x00, 0x00, 0x09,
  0x4c, 0x00, 0x00, 0x00, 0x9c, 0xfb, 0xff, 0xff, 0x08, 0x00, 0x00, 0x00,
  0x14, 0x00, 0x00, 0x00, 0x01, 0x00, 0x00, 0x00, 0x00, 0x00, 0x00, 0x00,
  0x00, 0x00, 0x00, 0x00, 0x00, 0x00, 0x00, 0x00, 0x01, 0x00, 0x00, 0x00,
  0x98, 0xd1, 0x9b, 0x3b, 0x1d, 0x00, 0x00, 0x00, 0x73, 0x65, 0x71, 0x75,
  0x65, 0x6e, 0x74, 0x69, 0x61, 0x6c, 0x5f, 0x33, 0x32, 0x2f, 0x64, 0x65,
  0x6e, 0x73, 0x65, 0x5f, 0x39, 0x36, 0x2f, 0x4d, 0x61, 0x74, 0x4d, 0x75,
  0x6c, 0x00, 0x00, 0x00, 0x02, 0x00, 0x00, 0x00, 0x20, 0x00, 0x00, 0x00,
  0x1b, 0x00, 0x00, 0x00, 0xd6, 0xfc, 0xff, 0xff, 0x00, 0x00, 0x00, 0x01,
  0x14, 0x00, 0x00, 0x00, 0x30, 0x00, 0x00, 0x00, 0x06, 0x00, 0x00, 0x00,
  0x00, 0x00, 0x00, 0x02, 0x58, 0x00, 0x00, 0x00, 0x0c, 0xfc, 0xff, 0xff,
  0x08, 0x00, 0x00, 0x00, 0x10, 0x00, 0x00, 0x00, 0x01, 0x00, 0x00, 0x00,
  0x00, 0x00, 0x00, 0x00, 0x00, 0x00, 0x00, 0x00, 0x01, 0x00, 0x00, 0x00,
  0xf0, 0xe3, 0xc2, 0x3e, 0x2d, 0x00, 0x00, 0x00, 0x73, 0x65, 0x71, 0x75,
  0x65, 0x6e, 0x74, 0x69, 0x61, 0x6c, 0x5f, 0x33, 0x32, 0x2f, 0x64, 0x65,
  0x6e, 0x73, 0x65, 0x5f, 0x39, 0x36, 0x2f, 0x42, 0x69, 0x61, 0x73, 0x41,
  0x64, 0x64, 0x2f, 0x52, 0x65, 0x61, 0x64, 0x56, 0x61, 0x72, 0x69, 0x61,
  0x62, 0x6c, 0x65, 0x4f, 0x70, 0x00, 0x00, 0x00, 0x01, 0x00, 0x00, 0x00,
  0x20, 0x00, 0x00, 0x00, 0x4e, 0xfd, 0xff, 0xff, 0x00, 0x00, 0x00, 0x01,
  0x14, 0x00, 0x00, 0x00, 0x30, 0x00, 0x00, 0x00, 0x05, 0x00, 0x00, 0x00,
  0x00, 0x00, 0x00, 0x09, 0xec, 0x00, 0x00, 0x00, 0x84, 0xfc, 0xff, 0xff,
  0x08, 0x00, 0x00, 0x00, 0x10, 0x00, 0x00, 0x00, 0x01, 0x00, 0x00, 0x00,
  0x00, 0x00, 0x00, 0x00, 0x00, 0x00, 0x00, 0x00, 0x01, 0x00, 0x00, 0x00,
  0xbe, 0x00, 0x3d, 0x3c, 0xc2, 0x00, 0x00, 0x00, 0x73, 0x65, 0x71, 0x75,
  0x65, 0x6e, 0x74, 0x69, 0x61, 0x6c, 0x5f, 0x33, 0x32, 0x2f, 0x62, 0x61,
  0x74, 0x63, 0x68, 0x5f, 0x6e, 0x6f, 0x72, 0x6d, 0x61, 0x6c, 0x69, 0x7a,
  0x61, 0x74, 0x69, 0x6f, 0x6e, 0x5f, 0x36, 0x34, 0x2f, 0x62, 0x61, 0x74,
  0x63, 0x68, 0x6e, 0x6f, 0x72, 0x6d, 0x2f, 0x6d, 0x75, 0x6c, 0x5f, 0x31,
  0x3b, 0x73, 0x65, 0x71, 0x75, 0x65, 0x6e, 0x74, 0x69, 0x61, 0x6c, 0x5f,
  0x33, 0x32, 0x2f, 0x62, 0x61, 0x74, 0x63, 0x68, 0x5f, 0x6e, 0x6f, 0x72,
  0x6d, 0x61, 0x6c, 0x69, 0x7a, 0x61, 0x74, 0x69, 0x6f, 0x6e, 0x5f, 0x36,
  0x34, 0x2f, 0x62, 0x61, 0x74, 0x63, 0x68, 0x6e, 0x6f, 0x72, 0x6d, 0x2f,
  0x61, 0x64, 0x64, 0x5f, 0x31, 0x3b, 0x73, 0x65, 0x71, 0x75, 0x65, 0x6e,
  0x74, 0x69, 0x61, 0x6c, 0x5f, 0x33, 0x32, 0x2f, 0x64, 0x65, 0x6e, 0x73,
  0x65, 0x5f, 0x39, 0x37, 0x2f, 0x4d, 0x61, 0x74, 0x4d, 0x75, 0x6c, 0x3b,
  0x73, 0x65, 0x71, 0x75, 0x65, 0x6e, 0x74, 0x69, 0x61, 0x6c, 0x5f, 0x33,
  0x32, 0x2f, 0x64, 0x65, 0x6e, 0x73, 0x65, 0x5f, 0x39, 0x37, 0x2f, 0x52,
  0x65, 0x6c, 0x75, 0x3b, 0x73, 0x65, 0x71, 0x75, 0x65, 0x6e, 0x74, 0x69,
  0x61, 0x6c, 0x5f, 0x33, 0x32, 0x2f, 0x64, 0x65, 0x6e, 0x73, 0x65, 0x5f,
  0x39, 0x37, 0x2f, 0x42, 0x69, 0x61, 0x73, 0x41, 0x64, 0x64, 0x00, 0x00,
  0x02, 0x00, 0x00, 0x00, 0x10, 0x00, 0x00, 0x00, 0x20, 0x00, 0x00, 0x00,
  0x5e, 0xfe, 0xff, 0xff, 0x00, 0x00, 0x00, 0x01, 0x14, 0x00, 0x00, 0x00,
  0x34, 0x00, 0x00, 0x00, 0x04, 0x00, 0x00, 0x00, 0x00, 0x00, 0x00, 0x02,
  0x88, 0x00, 0x00, 0x00, 0x94, 0xfd, 0xff, 0xff, 0x08, 0x00, 0x00, 0x00,
  0x14, 0x00, 0x00, 0x00, 0x01, 0x00, 0x00, 0x00, 0x00, 0x00, 0x00, 0x00,
  0x00, 0x00, 0x00, 0x00, 0x00, 0x00, 0x00, 0x00, 0x01, 0x00, 0x00, 0x00,
  0xac, 0xa0, 0xb6, 0x3e, 0x58, 0x00, 0x00, 0x00, 0x73, 0x65, 0x71, 0x75,
  0x65, 0x6e, 0x74, 0x69, 0x61, 0x6c, 0x5f, 0x33, 0x32, 0x2f, 0x64, 0x65,
  0x6e, 0x73, 0x65, 0x5f, 0x39, 0x37, 0x2f, 0x4d, 0x61, 0x74, 0x4d, 0x75,
  0x6c, 0x3b, 0x73, 0x65, 0x71, 0x75, 0x65, 0x6e, 0x74, 0x69, 0x61, 0x6c,
  0x5f, 0x33, 0x32, 0x2f, 0x64, 0x65, 0x6e, 0x73, 0x65, 0x5f, 0x39, 0x37,
  0x2f, 0x52, 0x65, 0x6c, 0x75, 0x3b, 0x73, 0x65, 0x71, 0x75, 0x65, 0x6e,
  0x74, 0x69, 0x61, 0x6c, 0x5f, 0x33, 0x32, 0x2f, 0x64, 0x65, 0x6e, 0x73,
  0x65, 0x5f, 0x39, 0x37, 0x2f, 0x42, 0x69, 0x61, 0x73, 0x41, 0x64, 0x64,
  0x00, 0x00, 0x00, 0x00, 0x01, 0x00, 0x00, 0x00, 0x10, 0x00, 0x00, 0x00,
  0x06, 0xff, 0xff, 0xff, 0x00, 0x00, 0x00, 0x01, 0x14, 0x00, 0x00, 0x00,
  0x34, 0x00, 0x00, 0x00, 0x03, 0x00, 0x00, 0x00, 0x00, 0x00, 0x00, 0x09,
  0xd4, 0x00, 0x00, 0x00, 0x3c, 0xfe, 0xff, 0xff, 0x08, 0x00, 0x00, 0x00,
  0x14, 0x00, 0x00, 0x00, 0x01, 0x00, 0x00, 0x00, 0x00, 0x00, 0x00, 0x00,
  0x00, 0x00, 0x00, 0x00, 0x00, 0x00, 0x00, 0x00, 0x01, 0x00, 0x00, 0x00,
  0x44, 0x59, 0xc9, 0x3b, 0xa6, 0x00, 0x00, 0x00, 0x73, 0x65, 0x71, 0x75,
  0x65, 0x6e, 0x74, 0x69, 0x61, 0x6c, 0x5f, 0x33, 0x32, 0x2f, 0x62, 0x61,
  0x74, 0x63, 0x68, 0x5f, 0x6e, 0x6f, 0x72, 0x6d, 0x61, 0x6c, 0x69, 0x7a,
  0x61, 0x74, 0x69, 0x6f, 0x6e, 0x5f, 0x36, 0x35, 0x2f, 0x62, 0x61, 0x74,
  0x63, 0x68, 0x6e, 0x6f, 0x72, 0x6d, 0x2f, 0x6d, 0x75, 0x6c, 0x5f, 0x31,
  0x3b, 0x73, 0x65, 0x71, 0x75, 0x65, 0x6e, 0x74, 0x69, 0x61, 0x6c, 0x5f,
  0x33, 0x32, 0x2f, 0x62, 0x61, 0x74, 0x63, 0x68, 0x5f, 0x6e, 0x6f, 0x72,
  0x6d, 0x61, 0x6c, 0x69, 0x7a, 0x61, 0x74, 0x69, 0x6f, 0x6e, 0x5f, 0x36,
  0x35, 0x2f, 0x62, 0x61, 0x74, 0x63, 0x68, 0x6e, 0x6f, 0x72, 0x6d, 0x2f,
  0x61, 0x64, 0x64, 0x5f, 0x31, 0x3b, 0x73, 0x65, 0x71, 0x75, 0x65, 0x6e,
  0x74, 0x69, 0x61, 0x6c, 0x5f, 0x33, 0x32, 0x2f, 0x64, 0x65, 0x6e, 0x73,
  0x65, 0x5f, 0x39, 0x38, 0x2f, 0x4d, 0x61, 0x74, 0x4d, 0x75, 0x6c, 0x3b,
  0x73, 0x65, 0x71, 0x75, 0x65, 0x6e, 0x74, 0x69, 0x61, 0x6c, 0x5f, 0x33,
  0x32, 0x2f, 0x64, 0x65, 0x6e, 0x73, 0x65, 0x5f, 0x39, 0x38, 0x2f, 0x42,
  0x69, 0x61, 0x73, 0x41, 0x64, 0x64, 0x00, 0x00, 0x02, 0x00, 0x00, 0x00,
  0x03, 0x00, 0x00, 0x00, 0x10, 0x00, 0x00, 0x00, 0x00, 0x00, 0x16, 0x00,
  0x1c, 0x00, 0x18, 0x00, 0x17, 0x00, 0x10, 0x00, 0x0c, 0x00, 0x08, 0x00,
  0x00, 0x00, 0x00, 0x00, 0x00, 0x00, 0x07, 0x00, 0x16, 0x00, 0x00, 0x00,
  0x00, 0x00, 0x00, 0x01, 0x14, 0x00, 0x00, 0x00, 0x34, 0x00, 0x00, 0x00,
  0x02, 0x00, 0x00, 0x00, 0x00, 0x00, 0x00, 0x02, 0x6c, 0x00, 0x00, 0x00,
  0x4c, 0xff, 0xff, 0xff, 0x08, 0x00, 0x00, 0x00, 0x14, 0x00, 0x00, 0x00,
  0x01, 0x00, 0x00, 0x00, 0x00, 0x00, 0x00, 0x00, 0x00, 0x00, 0x00, 0x00,
  0x00, 0x00, 0x00, 0x00, 0x01, 0x00, 0x00, 0x00, 0x43, 0x25, 0x97, 0x3e,
  0x3c, 0x00, 0x00, 0x00, 0x73, 0x65, 0x71, 0x75, 0x65, 0x6e, 0x74, 0x69,
  0x61, 0x6c, 0x5f, 0x33, 0x32, 0x2f, 0x64, 0x65, 0x6e, 0x73, 0x65, 0x5f,
  0x39, 0x38, 0x2f, 0x4d, 0x61, 0x74, 0x4d, 0x75, 0x6c, 0x3b, 0x73, 0x65,
  0x71, 0x75, 0x65, 0x6e, 0x74, 0x69, 0x61, 0x6c, 0x5f, 0x33, 0x32, 0x2f,
  0x64, 0x65, 0x6e, 0x73, 0x65, 0x5f, 0x39, 0x38, 0x2f, 0x42, 0x69, 0x61,
  0x73, 0x41, 0x64, 0x64, 0x00, 0x00, 0x00, 0x00, 0x01, 0x00, 0x00, 0x00,
  0x03, 0x00, 0x00, 0x00, 0x00, 0x00, 0x16, 0x00, 0x20, 0x00, 0x1c, 0x00,
  0x1b, 0x00, 0x14, 0x00, 0x10, 0x00, 0x0c, 0x00, 0x00, 0x00, 0x00, 0x00,
  0x08, 0x00, 0x07, 0x00, 0x16, 0x00, 0x00, 0x00, 0x00, 0x00, 0x00, 0x01,
  0x18, 0x00, 0x00, 0x00, 0x2c, 0x00, 0x00, 0x00, 0x4c, 0x00, 0x00, 0x00,
  0x01, 0x00, 0x00, 0x00, 0x00, 0x00, 0x00, 0x09, 0x68, 0x00, 0x00, 0x00,
  0x02, 0x00, 0x00, 0x00, 0xff, 0xff, 0xff, 0xff, 0x1b, 0x00, 0x00, 0x00,
  0x0c, 0x00, 0x0c, 0x00, 0x00, 0x00, 0x00, 0x00, 0x08, 0x00, 0x04, 0x00,
  0x0c, 0x00, 0x00, 0x00, 0x08, 0x00, 0x00, 0x00, 0x14, 0x00, 0x00, 0x00,
  0x01, 0x00, 0x00, 0x00, 0x80, 0xff, 0xff, 0xff, 0xff, 0xff, 0xff, 0xff,
  0x00, 0x00, 0x00, 0x00, 0x01, 0x00, 0x00, 0x00, 0x99, 0x18, 0xa0, 0x42,
  0x20, 0x00, 0x00, 0x00, 0x73, 0x65, 0x72, 0x76, 0x69, 0x6e, 0x67, 0x5f,
  0x64, 0x65, 0x66, 0x61, 0x75, 0x6c, 0x74, 0x5f, 0x64, 0x65, 0x6e, 0x73,
  0x65, 0x5f, 0x39, 0x36, 0x5f, 0x69, 0x6e, 0x70, 0x75, 0x74, 0x3a, 0x30,
  0x00, 0x00, 0x00, 0x00, 0x02, 0x00, 0x00, 0x00, 0x01, 0x00, 0x00, 0x00,
  0x1b, 0x00, 0x00, 0x00, 0x02, 0x00, 0x00, 0x00, 0x24, 0x00, 0x00, 0x00,
  0x04, 0x00, 0x00, 0x00, 0xf0, 0xff, 0xff, 0xff, 0x19, 0x00, 0x00, 0x00,
  0x02, 0x00, 0x00, 0x00, 0x00, 0x00, 0x00, 0x19, 0x0c, 0x00, 0x10, 0x00,
  0x0f, 0x00, 0x00, 0x00, 0x08, 0x00, 0x04, 0x00, 0x0c, 0x00, 0x00, 0x00,
  0x09, 0x00, 0x00, 0x00, 0x04, 0x00, 0x00, 0x00, 0x00, 0x00, 0x00, 0x09
};
unsigned int tflite_micro_model_tflite_len = 4776;
