unsigned char tflite_micro_model_tflite[] = {
  0x20, 0x00, 0x00, 0x00, 0x54, 0x46, 0x4c, 0x33, 0x00, 0x00, 0x00, 0x00,
  0x14, 0x00, 0x20, 0x00, 0x1c, 0x00, 0x18, 0x00, 0x14, 0x00, 0x10, 0x00,
  0x0c, 0x00, 0x00, 0x00, 0x08, 0x00, 0x04, 0x00, 0x14, 0x00, 0x00, 0x00,
  0x1c, 0x00, 0x00, 0x00, 0x1c, 0x00, 0x00, 0x00, 0x74, 0x00, 0x00, 0x00,
  0x60, 0x14, 0x00, 0x00, 0x70, 0x14, 0x00, 0x00, 0x70, 0x2e, 0x00, 0x00,
  0x03, 0x00, 0x00, 0x00, 0x00, 0x00, 0x00, 0x00, 0x02, 0x00, 0x00, 0x00,
  0x34, 0x00, 0x00, 0x00, 0x04, 0x00, 0x00, 0x00, 0xdc, 0xff, 0xff, 0xff,
  0x10, 0x00, 0x00, 0x00, 0x04, 0x00, 0x00, 0x00, 0x13, 0x00, 0x00, 0x00,
  0x43, 0x4f, 0x4e, 0x56, 0x45, 0x52, 0x53, 0x49, 0x4f, 0x4e, 0x5f, 0x4d,
  0x45, 0x54, 0x41, 0x44, 0x41, 0x54, 0x41, 0x00, 0x08, 0x00, 0x0c, 0x00,
  0x08, 0x00, 0x04, 0x00, 0x08, 0x00, 0x00, 0x00, 0x0f, 0x00, 0x00, 0x00,
  0x04, 0x00, 0x00, 0x00, 0x13, 0x00, 0x00, 0x00, 0x6d, 0x69, 0x6e, 0x5f,
  0x72, 0x75, 0x6e, 0x74, 0x69, 0x6d, 0x65, 0x5f, 0x76, 0x65, 0x72, 0x73,
  0x69, 0x6f, 0x6e, 0x00, 0x11, 0x00, 0x00, 0x00, 0xe8, 0x13, 0x00, 0x00,
  0xe0, 0x13, 0x00, 0x00, 0xc4, 0x13, 0x00, 0x00, 0x84, 0x13, 0x00, 0x00,
  0x34, 0x13, 0x00, 0x00, 0x24, 0x11, 0x00, 0x00, 0x94, 0x10, 0x00, 0x00,
  0x84, 0x08, 0x00, 0x00, 0x74, 0x07, 0x00, 0x00, 0xa4, 0x00, 0x00, 0x00,
  0x9c, 0x00, 0x00, 0x00, 0x94, 0x00, 0x00, 0x00, 0x8c, 0x00, 0x00, 0x00,
  0x84, 0x00, 0x00, 0x00, 0x7c, 0x00, 0x00, 0x00, 0x5c, 0x00, 0x00, 0x00,
  0x04, 0x00, 0x00, 0x00, 0xc6, 0xeb, 0xff, 0xff, 0x04, 0x00, 0x00, 0x00,
  0x48, 0x00, 0x00, 0x00, 0x04, 0x00, 0x00, 0x00, 0xdc, 0xff, 0xff, 0xff,
  0x10, 0x00, 0x00, 0x00, 0x24, 0x00, 0x00, 0x00, 0x00, 0x00, 0x06, 0x00,
  0x08, 0x00, 0x04, 0x00, 0x06, 0x00, 0x00, 0x00, 0x04, 0x00, 0x00, 0x00,
  0x01, 0x00, 0x00, 0x00, 0xeb, 0x03, 0x00, 0x00, 0x08, 0x00, 0x0c, 0x00,
  0x08, 0x00, 0x04, 0x00, 0x08, 0x00, 0x00, 0x00, 0x01, 0x00, 0x00, 0x00,
  0x04, 0x00, 0x00, 0x00, 0x06, 0x00, 0x00, 0x00, 0x32, 0x2e, 0x31, 0x30,
  0x2e, 0x30, 0x00, 0x00, 0x1a, 0xec, 0xff, 0xff, 0x04, 0x00, 0x00, 0x00,
  0x10, 0x00, 0x00, 0x00, 0x31, 0x2e, 0x31, 0x34, 0x2e, 0x30, 0x00, 0x00,
  0x00, 0x00, 0x00, 0x00, 0x00, 0x00, 0x00, 0x00, 0x04, 0xec, 0xff, 0xff,
  0x08, 0xec, 0xff, 0xff, 0x0c, 0xec, 0xff, 0xff, 0x10, 0xec, 0xff, 0xff,
  0x14, 0xec, 0xff, 0xff, 0x4a, 0xec, 0xff, 0xff, 0x04, 0x00, 0x00, 0x00,
  0xc0, 0x06, 0x00, 0x00, 0xc4, 0x59, 0x1e, 0xe8, 0x0c, 0x00, 0x1f, 0x10,
  0xe8, 0xb9, 0xa2, 0x1f, 0x1f, 0x00, 0x4b, 0xb1, 0x16, 0x21, 0x43, 0xbf,
  0xc2, 0x47, 0x1b, 0xd9, 0x1c, 0xad, 0xf0, 0x50, 0x37, 0x40, 0xf3, 0x1f,
  0xf9, 0x13, 0x4e, 0xe4, 0xf4, 0xd7, 0x45, 0x43, 0x15, 0xab, 0x0e, 0x36,
  0x42, 0xfe, 0x17, 0xbf, 0xe5, 0x30, 0xaa, 0xd9, 0xc9, 0xd8, 0x4c, 0x1f,
  0x14, 0xcd, 0x08, 0x0c, 0x14, 0xb6, 0xae, 0x14, 0xe4, 0xf8, 0x0f, 0xcf,
  0x3a, 0x3d, 0x8b, 0xcd, 0x04, 0xb9, 0x0e, 0x4b, 0xd1, 0x29, 0x24, 0x16,
  0x26, 0x32, 0xf9, 0xdf, 0x13, 0xe1, 0x04, 0xd1, 0x35, 0xbd, 0x19, 0x06,
  0xcf, 0x36, 0x11, 0xca, 0xd3, 0x16, 0x45, 0xd6, 0x9d, 0x2b, 0x39, 0x41,
  0xfa, 0xda, 0x18, 0xfa, 0x4a, 0xd2, 0xe7, 0xb7, 0x05, 0xce, 0xe8, 0x15,
  0x15, 0x19, 0xf6, 0xf5, 0xe5, 0x0f, 0x07, 0xac, 0x9f, 0x6f, 0x0e, 0xfd,
  0xea, 0xf5, 0xb6, 0x48, 0x14, 0x44, 0xd8, 0xd8, 0x0a, 0x04, 0x23, 0x02,
  0x4b, 0xed, 0xe3, 0x3d, 0x34, 0x1c, 0xcc, 0x0b, 0x09, 0xe3, 0x79, 0x35,
  0x35, 0xfa, 0xdb, 0xfc, 0x43, 0xe5, 0xd1, 0xc3, 0xe9, 0xcf, 0x1e, 0xf4,
  0xb6, 0xc1, 0x5c, 0xfd, 0x41, 0x11, 0x3e, 0xd4, 0xf3, 0x09, 0x01, 0xfe,
  0xcc, 0x42, 0x9e, 0x26, 0x03, 0x3e, 0xea, 0x09, 0xc7, 0xf6, 0x23, 0xca,
  0xc3, 0x35, 0xbe, 0x2a, 0x2d, 0x04, 0xf4, 0xee, 0x0a, 0xab, 0xe9, 0x03,
  0x32, 0xf2, 0x27, 0x4b, 0xdd, 0xfa, 0xc2, 0xc7, 0x48, 0xdf, 0xc4, 0x52,
  0x12, 0xcb, 0x1e, 0xea, 0xcb, 0x33, 0xda, 0x0e, 0x45, 0x08, 0xda, 0xf5,
  0x3f, 0xff, 0x26, 0xba, 0xf5, 0x05, 0x28, 0xe5, 0x51, 0xd0, 0xd7, 0xc4,
  0x00, 0x0f, 0xd8, 0x1c, 0xef, 0x52, 0x03, 0x4e, 0x47, 0xc5, 0x71, 0x39,
  0xd8, 0xeb, 0x20, 0x12, 0xdc, 0x09, 0xd0, 0xfa, 0xb6, 0x21, 0xe5, 0xbc,
  0xec, 0x03, 0x9d, 0xcd, 0x18, 0xcd, 0x06, 0xfd, 0x00, 0x41, 0xef, 0x3d,
  0xd9, 0xac, 0xc1, 0x0f, 0xe9, 0xfe, 0x1f, 0x57, 0x35, 0xad, 0xc9, 0xdb,
  0x0c, 0xc6, 0x36, 0xbf, 0xf7, 0x5b, 0x5a, 0xd6, 0xf2, 0x29, 0xd5, 0xb3,
  0xe7, 0x9d, 0xc7, 0x10, 0xc2, 0xe3, 0x14, 0x3f, 0x26, 0xc2, 0xf6, 0x4c,
  0xfd, 0xa3, 0x0b, 0x30, 0xc0, 0xd6, 0x10, 0x70, 0xde, 0xb9, 0x29, 0xc2,
  0x54, 0xf3, 0x17, 0xba, 0x0d, 0x66, 0xd1, 0x5b, 0x2e, 0xcb, 0xe4, 0xdc,
  0x17, 0x4e, 0xea, 0xf3, 0xd4, 0xca, 0x17, 0x48, 0xbc, 0x00, 0x6d, 0xbc,
  0xba, 0x18, 0xb8, 0x98, 0x26, 0xc4, 0xec, 0x06, 0xec, 0xf9, 0x10, 0x12,
  0xe9, 0xf3, 0x05, 0xca, 0x06, 0xdf, 0x20, 0xd2, 0x44, 0xe9, 0x2c, 0xc5,
  0xd3, 0xf8, 0xfa, 0xbb, 0xee, 0xe2, 0x5d, 0x1c, 0xf0, 0xf0, 0x16, 0xfb,
  0x22, 0xd2, 0xf8, 0xdc, 0x01, 0xe7, 0x26, 0x59, 0x57, 0xd4, 0xfe, 0xbf,
  0x2a, 0xc0, 0xd6, 0x48, 0xd4, 0xd8, 0xef, 0xd1, 0xd4, 0xc7, 0x17, 0xea,
  0x08, 0x4c, 0x1f, 0xe6, 0xca, 0xe0, 0x10, 0xe6, 0xd2, 0xcd, 0xdb, 0x23,
  0xbe, 0x17, 0x2f, 0x1c, 0xe4, 0xf2, 0xc3, 0xef, 0x0b, 0xc3, 0x1e, 0xf7,
  0x30, 0x0b, 0xe7, 0xde, 0xef, 0x47, 0xb6, 0xd2, 0x14, 0x0d, 0xbd, 0xbf,
  0x0d, 0xba, 0x14, 0x3f, 0xf4, 0xfc, 0x20, 0xcf, 0xdb, 0xf4, 0xdd, 0x4f,
  0x3d, 0x27, 0x98, 0xc9, 0xdc, 0x9b, 0x5e, 0x42, 0xef, 0xfe, 0xf3, 0x08,
  0x17, 0xf2, 0x07, 0xb3, 0x21, 0xde, 0xf6, 0xb9, 0xc3, 0x20, 0xeb, 0x24,
  0xc4, 0xc3, 0xfa, 0x25, 0xf0, 0xc2, 0xfb, 0x68, 0x23, 0xc0, 0x25, 0x09,
  0x0e, 0x2c, 0xa7, 0x07, 0xe8, 0xd7, 0x2c, 0xd3, 0x03, 0x35, 0xd6, 0xd4,
  0x10, 0x48, 0x02, 0xa1, 0xb7, 0xe1, 0xf2, 0x27, 0x0e, 0xe5, 0x25, 0xcf,
  0x16, 0x08, 0x2d, 0x2c, 0x32, 0xf2, 0x1c, 0xdc, 0x12, 0x3d, 0x46, 0x27,
  0x29, 0x36, 0xe4, 0xbb, 0xfa, 0xdf, 0xf8, 0x81, 0xea, 0x62, 0xf8, 0xd9,
  0x41, 0xf6, 0xaa, 0xfe, 0x1d, 0xe6, 0xd0, 0xa4, 0xbe, 0x10, 0x04, 0x01,
  0xbe, 0xe0, 0x34, 0xae, 0x0b, 0x26, 0xb8, 0x53, 0xd8, 0x5a, 0xac, 0xeb,
  0x1e, 0x10, 0x2a, 0x27, 0xfa, 0x3e, 0x40, 0xa0, 0x04, 0xf2, 0x38, 0xfe,
  0xe9, 0xbb, 0xeb, 0xf1, 0x41, 0x30, 0xf4, 0x07, 0x2f, 0x13, 0xff, 0xa8,
  0xef, 0x2a, 0x2f, 0x12, 0x0e, 0xf4, 0xfc, 0xe0, 0xc8, 0x08, 0x09, 0x96,
  0x05, 0x2a, 0x01, 0xe2, 0xeb, 0xc9, 0xec, 0x1c, 0x14, 0x47, 0x45, 0xeb,
  0xfd, 0xfd, 0xa6, 0x06, 0x2b, 0x01, 0xce, 0xfe, 0xf0, 0xeb, 0x2d, 0xef,
  0xe7, 0xe4, 0x00, 0xac, 0x4e, 0x20, 0x18, 0x13, 0xe8, 0x4f, 0x0c, 0x04,
  0x1a, 0xe8, 0x33, 0x9c, 0x68, 0x67, 0xf5, 0x33, 0x42, 0x1b, 0xd6, 0x38,
  0x15, 0xe4, 0xee, 0xd2, 0x01, 0x2b, 0x53, 0xe6, 0x0a, 0xf7, 0xf3, 0x33,
  0xac, 0x3d, 0xf0, 0x31, 0xf7, 0xc2, 0xc8, 0xb6, 0xe5, 0xdd, 0x29, 0xe2,
  0xd7, 0x2b, 0x39, 0xe5, 0xd0, 0xca, 0xf6, 0xc6, 0x63, 0x37, 0xea, 0x14,
  0xe8, 0xf9, 0x73, 0x3d, 0xf0, 0xd2, 0xd0, 0xc2, 0xbf, 0xc9, 0x6e, 0x18,
  0xd8, 0xdb, 0xcd, 0x4e, 0x33, 0xc9, 0x05, 0x01, 0xef, 0xc0, 0x0a, 0x45,
  0x47, 0xee, 0xe0, 0xd6, 0xf9, 0xc0, 0xde, 0xe2, 0xb5, 0x10, 0x27, 0x0b,
  0xde, 0x33, 0x9b, 0xe0, 0xc7, 0xfb, 0xf9, 0x53, 0xaa, 0xc5, 0xd9, 0xef,
  0xe5, 0xb2, 0xcb, 0x43, 0x04, 0x17, 0x0e, 0x1a, 0x03, 0xf7, 0xf7, 0xd0,
  0x64, 0xd0, 0xd2, 0xec, 0xe2, 0xe9, 0x28, 0xe2, 0xd2, 0x0d, 0xd9, 0x14,
  0xb4, 0xc0, 0x1a, 0xee, 0x5e, 0x17, 0xed, 0x9f, 0x6a, 0xf0, 0xf6, 0x0f,
  0xbb, 0x18, 0xf9, 0x0e, 0x8e, 0xb7, 0xc2, 0xfe, 0xdc, 0xa5, 0x05, 0xe5,
  0xc0, 0x14, 0x4b, 0x1b, 0xf5, 0xf9, 0xc9, 0x47, 0x11, 0x9f, 0x6e, 0x3c,
  0x33, 0xe5, 0xed, 0xd9, 0xb3, 0xfa, 0x01, 0xc3, 0x08, 0x4e, 0x10, 0xcf,
  0x03, 0xbd, 0x15, 0xf4, 0xdf, 0xa5, 0xb7, 0xbc, 0xd4, 0xc3, 0xf3, 0x22,
  0x4d, 0xb2, 0x1f, 0x03, 0x11, 0xf0, 0x17, 0x06, 0x36, 0xc3, 0x18, 0x11,
  0xf9, 0x21, 0x1e, 0xc0, 0x39, 0x29, 0xd8, 0x46, 0xdd, 0x35, 0x04, 0xea,
  0xcc, 0x27, 0xb6, 0xed, 0xdf, 0x0a, 0xc8, 0xf8, 0xc2, 0xe1, 0xef, 0x17,
  0xd9, 0xf5, 0xdd, 0xf9, 0x22, 0x0f, 0xe4, 0x17, 0xed, 0xcc, 0x15, 0xc9,
  0x02, 0xf0, 0xfc, 0x39, 0x34, 0xe8, 0xdd, 0xf5, 0x31, 0xce, 0xf5, 0xfd,
  0x07, 0x1a, 0x16, 0x0e, 0xc8, 0xa5, 0x37, 0x32, 0xfb, 0xd1, 0x4f, 0x25,
  0xc1, 0xd7, 0x09, 0x50, 0x22, 0x0c, 0x01, 0xd3, 0x0e, 0xfd, 0xe9, 0x2d,
  0x28, 0x2b, 0xef, 0xa2, 0xad, 0x0c, 0xdf, 0x0c, 0x26, 0xbc, 0xc5, 0x69,
  0xd4, 0xd2, 0xca, 0x52, 0x7b, 0xfd, 0xa1, 0x16, 0x3e, 0xa8, 0xa9, 0x25,
  0xb6, 0xe4, 0xc2, 0x09, 0x1d, 0x23, 0x61, 0xb7, 0x4b, 0xd4, 0xce, 0xd9,
  0x13, 0xbb, 0xe2, 0xe8, 0xc7, 0xbd, 0xf2, 0x05, 0x45, 0xe1, 0xee, 0x11,
  0x31, 0x3b, 0x12, 0x91, 0xf4, 0xb8, 0xe3, 0x27, 0xe8, 0xfb, 0xfd, 0x0b,
  0x1a, 0x1a, 0x0c, 0xef, 0x3f, 0xb8, 0x29, 0xbe, 0xb1, 0xeb, 0x1c, 0xe0,
  0xd6, 0xf6, 0xce, 0x0b, 0xb8, 0x58, 0xc7, 0xde, 0xfb, 0xda, 0xcf, 0xf8,
  0x29, 0xdc, 0xa7, 0xf1, 0x1d, 0x50, 0x27, 0x30, 0x36, 0xb9, 0x5a, 0xbc,
  0x4f, 0x30, 0xb3, 0x12, 0x1a, 0x04, 0xdc, 0x18, 0xd3, 0x4d, 0xa7, 0xf5,
  0xf4, 0x18, 0xf0, 0xdf, 0xdb, 0xfa, 0x34, 0xfb, 0x10, 0xfb, 0xf7, 0x23,
  0xf7, 0xe6, 0xfd, 0xf0, 0xe2, 0x37, 0xec, 0xde, 0xf4, 0x39, 0x57, 0x5e,
  0xd7, 0xc2, 0xfb, 0xa5, 0x11, 0xeb, 0xd2, 0xbe, 0xf7, 0x10, 0xb5, 0xa8,
  0x0a, 0x1f, 0xe9, 0x5e, 0x1d, 0xfd, 0xef, 0x11, 0xf4, 0xf9, 0x3b, 0xfd,
  0xc8, 0xe5, 0x4c, 0x22, 0xbb, 0x07, 0xbe, 0x10, 0x05, 0x47, 0x08, 0x57,
  0x1f, 0xbf, 0xe5, 0x1e, 0xea, 0xfb, 0xb2, 0x00, 0xb1, 0x02, 0xde, 0x16,
  0x3e, 0xf7, 0xbe, 0x1d, 0xfc, 0xe0, 0x11, 0xf4, 0x2b, 0x03, 0x31, 0xcd,
  0x1d, 0xce, 0x11, 0xa2, 0x3a, 0x34, 0x22, 0x2a, 0x05, 0xcc, 0xcd, 0x1b,
  0x3d, 0x14, 0x2e, 0xc1, 0x33, 0x30, 0x22, 0x05, 0xf2, 0x2f, 0x93, 0xf9,
  0x20, 0xd4, 0x10, 0x06, 0x12, 0xc6, 0x19, 0xe0, 0xfb, 0xf9, 0x56, 0x09,
  0xf2, 0x42, 0x08, 0xda, 0xff, 0x1a, 0xdb, 0x06, 0xd8, 0x06, 0xa3, 0x02,
  0x3b, 0x72, 0x26, 0x10, 0x0c, 0x40, 0x15, 0x30, 0xb2, 0xf8, 0x27, 0xef,
  0x20, 0xb9, 0x2d, 0x0f, 0xbb, 0xce, 0xfd, 0xcb, 0x2e, 0xda, 0x16, 0x33,
  0xc2, 0x05, 0x34, 0x1b, 0x9e, 0xfa, 0x1a, 0x1d, 0x2d, 0xdd, 0x21, 0x0a,
  0xf8, 0x04, 0x1b, 0x0a, 0xdf, 0xb8, 0x1f, 0xec, 0x23, 0xba, 0x07, 0x71,
  0xdc, 0xfb, 0xf9, 0x35, 0x4b, 0xe0, 0x34, 0x27, 0xfb, 0x05, 0xc1, 0x08,
  0x27, 0x14, 0xdf, 0x63, 0xd7, 0xa0, 0x1f, 0xe8, 0xec, 0x51, 0xb8, 0x4f,
  0x0c, 0x1b, 0x48, 0xf8, 0x96, 0xb4, 0x1f, 0xdb, 0x1a, 0xa4, 0xcd, 0x54,
  0xc5, 0xfc, 0xfd, 0xb5, 0xd1, 0xdf, 0x05, 0x05, 0xdd, 0xd6, 0xeb, 0xb5,
  0xd5, 0x11, 0x38, 0xfb, 0xd0, 0x33, 0xfe, 0x10, 0xbc, 0x70, 0xf7, 0x1d,
  0xcb, 0xd0, 0xcf, 0x10, 0x16, 0x29, 0xd5, 0x37, 0x16, 0x23, 0x31, 0xb2,
  0xef, 0xc6, 0x13, 0xe0, 0x16, 0xd8, 0x1b, 0xc4, 0xda, 0x4b, 0x13, 0xf5,
  0xec, 0x16, 0x1c, 0x3f, 0xfc, 0xac, 0x30, 0xdd, 0xcc, 0xe6, 0xce, 0x36,
  0x15, 0x19, 0x18, 0xf6, 0x1f, 0xfa, 0x0a, 0xe4, 0x0a, 0x39, 0x1d, 0xe3,
  0xf5, 0x48, 0x2a, 0xf2, 0x0d, 0x2c, 0x36, 0x6d, 0x38, 0xa8, 0x4b, 0x03,
  0xe9, 0xe9, 0x4c, 0x8e, 0x33, 0x05, 0xfe, 0x51, 0x69, 0xc9, 0x61, 0x8e,
  0x0c, 0x0a, 0xf7, 0xc1, 0xff, 0x42, 0x05, 0x0a, 0xd7, 0x17, 0x02, 0x29,
  0xc7, 0xf5, 0x1d, 0xce, 0x17, 0x2d, 0x05, 0x2c, 0xe5, 0xfa, 0x01, 0xf2,
  0x01, 0x41, 0x58, 0x14, 0xfa, 0x04, 0xcc, 0xfe, 0xf9, 0xe5, 0xbc, 0xd5,
  0xc9, 0xef, 0x64, 0xea, 0x21, 0xd2, 0x68, 0xdf, 0xc8, 0xc2, 0xf9, 0x2b,
  0xf0, 0xf2, 0x4d, 0xf0, 0xee, 0xf2, 0xf9, 0xcd, 0xfc, 0x02, 0xc9, 0x59,
  0x05, 0xae, 0x3e, 0xe3, 0xc8, 0xaa, 0xc2, 0x52, 0xeb, 0x07, 0xb6, 0x2b,
  0x2b, 0x35, 0xbe, 0xda, 0xdf, 0xcd, 0x4e, 0x25, 0x20, 0x26, 0xc8, 0xfc,
  0xed, 0xeb, 0x5b, 0xc7, 0x24, 0x4b, 0xe7, 0xda, 0x0c, 0x0c, 0xf9, 0x0d,
  0x05, 0xec, 0x2b, 0xa9, 0x76, 0xef, 0xcb, 0x02, 0x72, 0xde, 0x70, 0xd5,
  0xe1, 0x2f, 0xdd, 0x37, 0x52, 0xcf, 0x43, 0x30, 0x08, 0xeb, 0xc5, 0x23,
  0x10, 0x02, 0x1a, 0x06, 0xf9, 0xf5, 0x4b, 0xe0, 0xa5, 0x09, 0xa2, 0x3a,
  0xf4, 0xfc, 0xc7, 0x44, 0xf2, 0x1e, 0xeb, 0xe1, 0xb9, 0x69, 0x0d, 0x0e,
  0x2c, 0xeb, 0x03, 0xfa, 0xf4, 0xac, 0xe5, 0xe6, 0x4a, 0x6e, 0x52, 0xf8,
  0x2a, 0xde, 0xfc, 0xe7, 0x4c, 0xe5, 0xe2, 0xa3, 0x14, 0x3a, 0xb2, 0x08,
  0x06, 0xa2, 0x0a, 0xf5, 0xd6, 0xec, 0x1e, 0x32, 0x67, 0xa5, 0xc4, 0xfe,
  0x1a, 0xf0, 0x28, 0x1d, 0x38, 0x01, 0x2f, 0x18, 0xfe, 0x23, 0x3e, 0xa1,
  0x0e, 0xb6, 0x22, 0x1d, 0x19, 0xee, 0x35, 0x0d, 0xb2, 0x90, 0xeb, 0xf6,
  0xba, 0x39, 0x4d, 0xd8, 0xd0, 0xf0, 0x11, 0x99, 0xe2, 0x38, 0x2f, 0xeb,
  0x59, 0xf6, 0xb3, 0x48, 0xe3, 0xdc, 0x0a, 0x66, 0xdd, 0xe1, 0xd0, 0xbb,
  0xb9, 0x0a, 0xe9, 0xf6, 0xa0, 0xe2, 0xed, 0xe1, 0x09, 0xcd, 0x36, 0xdb,
  0x04, 0x33, 0x22, 0x02, 0x71, 0x1f, 0xc6, 0xba, 0x0e, 0x1a, 0xf3, 0x55,
  0xd7, 0x18, 0x38, 0x0d, 0xdb, 0xeb, 0x05, 0x10, 0xee, 0xdc, 0xca, 0xfc,
  0x02, 0x38, 0x04, 0xad, 0x71, 0xff, 0x5d, 0x2a, 0xfa, 0xa7, 0x94, 0xf9,
  0x49, 0x26, 0x07, 0xa7, 0x11, 0xbe, 0xd2, 0x1d, 0xb7, 0xc4, 0x2c, 0x03,
  0xc0, 0xda, 0x01, 0x16, 0x55, 0xd2, 0xdc, 0x32, 0x18, 0x4f, 0xf4, 0x5a,
  0x05, 0xe3, 0x17, 0xab, 0x9c, 0xb9, 0x07, 0x02, 0xff, 0x4d, 0xfd, 0x1b,
  0x30, 0x19, 0x05, 0x16, 0x10, 0x1b, 0x21, 0x50, 0xf2, 0x97, 0xac, 0xf6,
  0x0d, 0x02, 0x37, 0x52, 0x50, 0xba, 0x05, 0xed, 0x1f, 0xac, 0xee, 0x33,
  0x07, 0xe1, 0xdb, 0xf3, 0x3c, 0xdc, 0x4b, 0x12, 0x9d, 0x64, 0x12, 0xb6,
  0x94, 0x4b, 0xee, 0x06, 0x03, 0x2c, 0x72, 0xd5, 0x11, 0xd9, 0x11, 0xcc,
  0xcd, 0x29, 0x22, 0xd4, 0x2a, 0xea, 0x2e, 0xc7, 0x09, 0xdc, 0xf8, 0x0d,
  0xe4, 0x1d, 0xb5, 0x1a, 0xc5, 0xe7, 0x1c, 0x19, 0x26, 0xee, 0x0e, 0x14,
  0x07, 0x58, 0x43, 0x00, 0xcd, 0x23, 0x4d, 0xf7, 0xab, 0xe1, 0x29, 0x34,
  0x09, 0x19, 0x34, 0xfc, 0x51, 0x36, 0x08, 0x4c, 0xcb, 0xdf, 0x3d, 0x08,
  0x2c, 0x31, 0x33, 0x26, 0x16, 0xf3, 0xff, 0xff, 0x04, 0x00, 0x00, 0x00,
  0x00, 0x01, 0x00, 0x00, 0x36, 0x00, 0x00, 0x00, 0x5c, 0x00, 0x00, 0x00,
  0x60, 0xfe, 0xff, 0xff, 0x36, 0x01, 0x00, 0x00, 0x44, 0x00, 0x00, 0x00,
  0xc5, 0x01, 0x00, 0x00, 0xe6, 0xff, 0xff, 0xff, 0x12, 0xff, 0xff, 0xff,
  0xa6, 0xff, 0xff, 0xff, 0x87, 0xfe, 0xff, 0xff, 0xd5, 0x00, 0x00, 0x00,
  0xca, 0xfe, 0xff, 0xff, 0x3f, 0xff, 0xff, 0xff, 0xb6, 0x00, 0x00, 0x00,
  0x49, 0x01, 0x00, 0x00, 0xa2, 0x00, 0x00, 0x00, 0x35, 0xfe, 0xff, 0xff,
  0x2a, 0x01, 0x00, 0x00, 0xaa, 0x00, 0x00, 0x00, 0xab, 0xfe, 0xff, 0xff,
  0x4d, 0x00, 0x00, 0x00, 0x62, 0x00, 0x00, 0x00, 0x43, 0xff, 0xff, 0xff,
  0x53, 0x00, 0x00, 0x00, 0xa7, 0xfe, 0xff, 0xff, 0xe2, 0x00, 0x00, 0x00,
  0xcd, 0xff, 0xff, 0xff, 0x23, 0x00, 0x00, 0x00, 0xf5, 0xff, 0xff, 0xff,
  0x65, 0xff, 0xff, 0xff, 0x35, 0x01, 0x00, 0x00, 0xc2, 0x00, 0x00, 0x00,
  0xea, 0xfc, 0xff, 0xff, 0xba, 0xff, 0xff, 0xff, 0x8e, 0x00, 0x00, 0x00,
  0xe4, 0x02, 0x00, 0x00, 0x3d, 0xfe, 0xff, 0xff, 0xfb, 0xfe, 0xff, 0xff,
  0xd1, 0xff, 0xff, 0xff, 0x26, 0xfc, 0xff, 0xff, 0xf7, 0xfe, 0xff, 0xff,
  0xa5, 0x01, 0x00, 0x00, 0x33, 0xfe, 0xff, 0xff, 0x81, 0xff, 0xff, 0xff,
  0xbc, 0x00, 0x00, 0x00, 0xf2, 0x00, 0x00, 0x00, 0xe3, 0xff, 0xff, 0xff,
  0xfe, 0xfd, 0xff, 0xff, 0x2c, 0x01, 0x00, 0x00, 0xb0, 0xfe, 0xff, 0xff,
  0x92, 0x00, 0x00, 0x00, 0xa1, 0x02, 0x00, 0x00, 0x14, 0xfe, 0xff, 0xff,
  0xe0, 0xfe, 0xff, 0xff, 0x9b, 0xff, 0xff, 0xff, 0x1b, 0x01, 0x00, 0x00,
  0xd8, 0xfe, 0xff, 0xff, 0xbc, 0x00, 0x00, 0x00, 0x97, 0x00, 0x00, 0x00,
  0xc9, 0x01, 0x00, 0x00, 0x63, 0x00, 0x00, 0x00, 0xe2, 0xfd, 0xff, 0xff,
  0xb7, 0x01, 0x00, 0x00, 0xa4, 0xfe, 0xff, 0xff, 0x22, 0xf4, 0xff, 0xff,
  0x04, 0x00, 0x00, 0x00, 0x00, 0x08, 0x00, 0x00, 0xeb, 0x08, 0xe6, 0xea,
  0x19, 0xf8, 0x1e, 0x50, 0x05, 0x02, 0xfb, 0xc2, 0xf9, 0x04, 0xe9, 0xe3,
  0x0e, 0x08, 0xfa, 0x24, 0x1f, 0xfc, 0x27, 0x0e, 0xcd, 0xe9, 0x12, 0x24,
  0xd3, 0x16, 0xfb, 0xf8, 0x0c, 0x0c, 0x02, 0xeb, 0xf5, 0xec, 0x37, 0xf1,
  0x04, 0x22, 0xfb, 0xe4, 0x1f, 0xf8, 0x25, 0x0b, 0x07, 0x06, 0xf7, 0xdc,
  0xff, 0xfa, 0x03, 0xf8, 0xe4, 0x11, 0x09, 0x05, 0x06, 0x10, 0x0e, 0x09,
  0xf5, 0xfc, 0xee, 0x13, 0x07, 0xfb, 0x13, 0x5b, 0x27, 0x1d, 0x06, 0xd5,
  0x04, 0xf4, 0x0e, 0x33, 0xe1, 0xf7, 0xf3, 0xe9, 0xfa, 0x05, 0x03, 0xfc,
  0x0d, 0xd7, 0x40, 0xe4, 0x18, 0x32, 0xfd, 0xf1, 0x10, 0x15, 0x12, 0x25,
  0xfe, 0xf2, 0xfd, 0xea, 0xfc, 0xf9, 0x29, 0x0f, 0xf9, 0x1e, 0x0c, 0xe7,
  0x11, 0xf2, 0xce, 0x13, 0x01, 0x15, 0x10, 0x08, 0x1b, 0xf5, 0x13, 0xd8,
  0x12, 0xf2, 0xe1, 0xfa, 0xf4, 0xf5, 0x23, 0x1e, 0x26, 0x32, 0x14, 0x0c,
  0x26, 0x16, 0x05, 0x19, 0x25, 0x10, 0xfa, 0xf0, 0x1b, 0x29, 0x06, 0xdc,
  0xec, 0xf7, 0xe4, 0x20, 0x30, 0x16, 0xeb, 0x15, 0xe9, 0xf2, 0x2f, 0xf6,
  0xcb, 0x43, 0x09, 0x1f, 0x03, 0x22, 0xe0, 0x17, 0x15, 0x1a, 0xfd, 0x1c,
  0x0f, 0x1c, 0xdf, 0xf9, 0xd6, 0x09, 0xee, 0x2f, 0x02, 0x04, 0x25, 0xfe,
  0x30, 0xd4, 0xdd, 0x29, 0xf2, 0x07, 0x01, 0xe7, 0xe1, 0x27, 0xe7, 0x1b,
  0xee, 0xed, 0xec, 0x22, 0xe5, 0xd7, 0x10, 0x7a, 0x10, 0xec, 0xfc, 0xe6,
  0x0e, 0x33, 0xf1, 0x04, 0x2c, 0x2d, 0xec, 0x29, 0x0d, 0x36, 0xc9, 0x2a,
  0xdd, 0xe3, 0xee, 0xf8, 0x4f, 0x40, 0xe7, 0x10, 0x03, 0xf7, 0x10, 0xfb,
  0xfa, 0xda, 0xff, 0xe7, 0x2d, 0x05, 0x0b, 0xd0, 0x0a, 0x24, 0xd4, 0xe3,
  0x23, 0xd4, 0x21, 0xff, 0xfe, 0x17, 0x10, 0x08, 0xf1, 0x16, 0x00, 0xe8,
  0xf8, 0xee, 0xfa, 0xf6, 0x10, 0x19, 0xf0, 0xf9, 0x2e, 0x35, 0x0e, 0xb6,
  0x0b, 0x0f, 0x23, 0x2b, 0x32, 0x48, 0xf4, 0x03, 0x0c, 0xe6, 0x29, 0xfd,
  0xee, 0x12, 0x09, 0x0f, 0xfd, 0xa9, 0x0d, 0x20, 0xde, 0x22, 0xef, 0x1d,
  0xb1, 0x08, 0x0f, 0x02, 0xde, 0x16, 0xd2, 0x17, 0xec, 0x0e, 0xfc, 0x0a,
  0xd4, 0xf5, 0x0d, 0xf3, 0xf0, 0x12, 0x14, 0x1a, 0xf8, 0xf1, 0x24, 0x05,
  0xf0, 0xec, 0x00, 0x0b, 0x1e, 0x01, 0x0e, 0x08, 0xf9, 0xd8, 0xfc, 0x08,
  0x0a, 0x09, 0xfb, 0xb3, 0xf7, 0x14, 0xe8, 0x4c, 0x0d, 0x11, 0x13, 0x33,
  0x39, 0x1e, 0xca, 0x00, 0xc9, 0xeb, 0x21, 0x3c, 0xd7, 0x30, 0xe8, 0xfa,
  0x28, 0x27, 0xe1, 0xf5, 0xbf, 0x0a, 0xe1, 0xfb, 0x00, 0xe8, 0x28, 0xe7,
  0x25, 0xf5, 0x0b, 0x01, 0xf6, 0xe8, 0x12, 0xf0, 0xe8, 0xf5, 0x01, 0xdc,
  0xf2, 0xe4, 0x10, 0x0f, 0x02, 0xfe, 0xf4, 0x00, 0xf9, 0x08, 0xfd, 0xf8,
  0xd3, 0x32, 0x0c, 0x05, 0x10, 0xf7, 0xee, 0x19, 0x15, 0xf2, 0xeb, 0x36,
  0x1e, 0x3b, 0x08, 0xd7, 0x1c, 0x1d, 0x30, 0xfc, 0xfd, 0x15, 0xfc, 0x31,
  0x01, 0x20, 0x03, 0xea, 0xf8, 0x1e, 0xfa, 0x0e, 0xe8, 0xf7, 0x4a, 0x12,
  0x07, 0x19, 0xf8, 0xec, 0x06, 0x1d, 0xee, 0x07, 0xf6, 0xf5, 0x1a, 0x04,
  0x14, 0xfc, 0xee, 0x02, 0x04, 0x2c, 0x00, 0xfd, 0x0f, 0xe1, 0xf8, 0x03,
  0x23, 0x15, 0x01, 0xe7, 0xe4, 0xf1, 0xe3, 0xf8, 0x2b, 0x1e, 0xff, 0xad,
  0x03, 0x22, 0xe3, 0xe7, 0xfe, 0x0b, 0x0c, 0xfd, 0xda, 0x14, 0x01, 0x0d,
  0xe9, 0xfd, 0xf7, 0xfa, 0xe3, 0x5a, 0x0e, 0xec, 0xf8, 0x1f, 0x06, 0x12,
  0x22, 0xfb, 0x0f, 0xef, 0x09, 0xea, 0x1b, 0xff, 0x1a, 0x03, 0xec, 0xed,
  0xe3, 0x17, 0x0d, 0xf9, 0xcd, 0xea, 0xf5, 0x14, 0xf0, 0xfd, 0x1b, 0xdf,
  0x0f, 0x0c, 0x28, 0x0e, 0xda, 0xf5, 0xfe, 0xf0, 0xe2, 0x1d, 0xff, 0xfd,
  0xe3, 0x24, 0x0a, 0xe5, 0x27, 0x03, 0x07, 0x18, 0x37, 0x1d, 0x24, 0x23,
  0xee, 0xf1, 0x21, 0xef, 0xfa, 0x16, 0x0e, 0xfe, 0x05, 0xc8, 0x21, 0x12,
  0x00, 0x24, 0xfb, 0xf7, 0x09, 0xeb, 0x34, 0xf5, 0xff, 0x19, 0x0d, 0xf2,
  0x10, 0xfd, 0x13, 0x29, 0x01, 0x08, 0xd6, 0x0d, 0xfa, 0xda, 0xe9, 0xf8,
  0xd1, 0xde, 0xd7, 0x2a, 0x12, 0xdc, 0xe8, 0xf9, 0xe8, 0xfe, 0x02, 0x37,
  0xe8, 0x1e, 0xde, 0x0a, 0x14, 0x19, 0xed, 0x44, 0x2f, 0xef, 0x0e, 0x0b,
  0xfa, 0x66, 0xcb, 0xfd, 0xed, 0x0d, 0xd1, 0xf6, 0xef, 0x02, 0xd2, 0xd6,
  0x20, 0xac, 0x2b, 0xeb, 0xe0, 0xdb, 0xe2, 0x01, 0x19, 0xfe, 0x11, 0x1f,
  0xf5, 0xe6, 0x16, 0x17, 0x0a, 0x1b, 0x0a, 0xe0, 0xf5, 0xf8, 0x1a, 0xf1,
  0xf8, 0x21, 0xf5, 0x35, 0x0e, 0x0e, 0xf8, 0x11, 0x01, 0x0a, 0x16, 0x10,
  0xfb, 0x16, 0xeb, 0xd1, 0x2b, 0x34, 0xf4, 0xd8, 0x24, 0x03, 0x0b, 0xbb,
  0x12, 0xd9, 0x24, 0x0e, 0xf6, 0xdd, 0x29, 0x23, 0x0f, 0xf7, 0x1e, 0x27,
  0x15, 0x0f, 0xf8, 0x0b, 0x14, 0xf6, 0x16, 0x0a, 0xd6, 0x14, 0x09, 0xf0,
  0x23, 0x3f, 0xf5, 0x16, 0x2a, 0x28, 0xf9, 0xff, 0xf3, 0x04, 0x1f, 0x1c,
  0xf9, 0x0d, 0xfc, 0xff, 0x11, 0xe9, 0x15, 0xe2, 0xff, 0xed, 0x10, 0xf0,
  0xdb, 0x1d, 0x24, 0x0f, 0xc6, 0x05, 0xf6, 0xf0, 0x1d, 0x34, 0xf2, 0xc3,
  0xfd, 0xf0, 0xe8, 0x46, 0xe7, 0x2a, 0xfa, 0xbb, 0x2a, 0xb4, 0x06, 0x0b,
  0x09, 0x12, 0x16, 0xe4, 0x0b, 0x00, 0x1e, 0x1f, 0xea, 0xf3, 0xe6, 0xef,
  0x15, 0x1f, 0xfc, 0xfe, 0x2b, 0x26, 0x0e, 0x04, 0xf4, 0xec, 0x03, 0x00,
  0x05, 0xf4, 0xdc, 0xf0, 0x05, 0xf8, 0xe2, 0xf1, 0x07, 0xe5, 0xe0, 0x07,
  0x11, 0xff, 0x29, 0xf0, 0xf0, 0xf0, 0xec, 0xff, 0xdf, 0xf9, 0xfe, 0xc7,
  0xfe, 0x0d, 0x14, 0xc6, 0x37, 0xfc, 0x38, 0x95, 0x1c, 0x21, 0x1f, 0xf8,
  0xed, 0xed, 0x0d, 0x0a, 0x0f, 0xda, 0x2f, 0xf8, 0xe0, 0x11, 0x2d, 0xca,
  0xde, 0x4c, 0xee, 0xe1, 0x05, 0x26, 0x20, 0xee, 0x58, 0x23, 0x0b, 0x07,
  0xf1, 0xed, 0xcd, 0xf4, 0x10, 0x17, 0xfc, 0xf7, 0x15, 0xf4, 0x26, 0x0c,
  0x01, 0x16, 0x24, 0x33, 0xf5, 0x07, 0xf4, 0x16, 0x20, 0xe2, 0x09, 0x0b,
  0x03, 0x10, 0xf3, 0x2a, 0x17, 0xaf, 0xe9, 0x57, 0xf6, 0x02, 0x0c, 0xfb,
  0x07, 0x09, 0xed, 0x0d, 0x06, 0x0f, 0x21, 0x34, 0x06, 0xf0, 0x0a, 0x1a,
  0xd0, 0xfe, 0x00, 0xee, 0x09, 0x02, 0x07, 0x01, 0x3b, 0x02, 0x03, 0x06,
  0xbd, 0xf9, 0xf6, 0x02, 0xea, 0x17, 0x15, 0x1a, 0xeb, 0x12, 0x08, 0x05,
  0x0b, 0xf7, 0xfc, 0x07, 0x1d, 0xfe, 0xec, 0xf6, 0xfa, 0xfa, 0xdb, 0xf4,
  0xf9, 0x10, 0xee, 0xfd, 0xe2, 0x1f, 0xfe, 0xff, 0x19, 0xf5, 0xf6, 0x30,
  0x15, 0x43, 0x10, 0x44, 0xf3, 0xf6, 0xfd, 0xb4, 0xd5, 0x4e, 0xf7, 0x02,
  0x11, 0x0d, 0xf1, 0x25, 0x34, 0x04, 0xfa, 0x28, 0xcb, 0xe8, 0x00, 0xf7,
  0xc5, 0xda, 0xdb, 0x05, 0xdd, 0x17, 0x0e, 0xf6, 0x09, 0x23, 0xc0, 0x06,
  0x06, 0x0a, 0xf9, 0xec, 0x0a, 0xd8, 0xe9, 0xe2, 0x28, 0x36, 0x03, 0xfb,
  0xeb, 0xff, 0x29, 0x1e, 0x08, 0xdc, 0x2c, 0x05, 0x22, 0x24, 0x18, 0x2b,
  0x12, 0xf1, 0xf0, 0x23, 0x08, 0x32, 0x1b, 0xf3, 0x0c, 0xf8, 0x16, 0x03,
  0xb5, 0xdb, 0xfc, 0x0d, 0xfe, 0xf1, 0x06, 0x25, 0x0b, 0xf1, 0x1e, 0x04,
  0x06, 0x02, 0xea, 0x10, 0x1d, 0x12, 0xf7, 0x01, 0x31, 0xe0, 0x04, 0xe5,
  0xe8, 0x09, 0xf4, 0xf3, 0x00, 0x00, 0x0d, 0xf5, 0x0d, 0x04, 0x1b, 0xec,
  0x34, 0xf8, 0x05, 0x12, 0xde, 0x2e, 0x20, 0xef, 0x03, 0xf1, 0xe4, 0x15,
  0x32, 0xf0, 0x18, 0x01, 0xe2, 0x20, 0xf2, 0xf6, 0x0e, 0xfd, 0xdc, 0xd5,
  0x03, 0xe6, 0xed, 0xea, 0x2a, 0xf8, 0x07, 0xd9, 0xe8, 0x08, 0xe4, 0x0d,
  0x21, 0xf1, 0xf4, 0xe4, 0xfe, 0xe0, 0xde, 0xd2, 0x17, 0xfd, 0x07, 0x05,
  0x3d, 0x16, 0xf7, 0xea, 0xef, 0xeb, 0xee, 0x23, 0xef, 0xff, 0x02, 0xe8,
  0xed, 0x0a, 0xc3, 0x0d, 0x0e, 0x07, 0xe7, 0xf5, 0x02, 0x0c, 0x1e, 0x11,
  0x1c, 0x10, 0xe3, 0xf7, 0x18, 0x12, 0x28, 0x03, 0xfb, 0xdf, 0xf9, 0x20,
  0xff, 0x08, 0x00, 0xe7, 0x16, 0x30, 0xf0, 0xf0, 0xee, 0xc6, 0x1d, 0xd3,
  0x18, 0x03, 0x0c, 0xf1, 0x30, 0x22, 0xff, 0xfd, 0x0b, 0xd0, 0x0b, 0xff,
  0xef, 0x08, 0x07, 0xfe, 0xd2, 0x0c, 0x12, 0x0e, 0xf5, 0x2a, 0x0d, 0xee,
  0x20, 0x28, 0x24, 0xef, 0xef, 0xdc, 0xf5, 0x09, 0xe1, 0x0f, 0xe1, 0x0a,
  0xd2, 0x25, 0x35, 0xdb, 0x35, 0x0c, 0xee, 0xf8, 0xea, 0xf4, 0x04, 0xe0,
  0xe7, 0xf2, 0x01, 0x21, 0xf0, 0xdc, 0xf8, 0xae, 0xd3, 0xff, 0xf7, 0x1f,
  0xed, 0x17, 0xd1, 0xf6, 0x17, 0xfb, 0xe3, 0xfa, 0xb6, 0xfe, 0x0f, 0x1c,
  0x01, 0xbe, 0xf1, 0x12, 0x12, 0x08, 0xf3, 0xec, 0x14, 0xee, 0xda, 0x19,
  0x0b, 0x15, 0xdd, 0xfc, 0xfc, 0xf4, 0x25, 0xf6, 0x0c, 0xd8, 0xeb, 0x01,
  0xd6, 0xfb, 0x16, 0xfd, 0x07, 0xfd, 0x2c, 0x1f, 0xfc, 0x06, 0xdf, 0xff,
  0x2a, 0xf9, 0x0b, 0xf1, 0x23, 0xf1, 0xf5, 0xe5, 0xfe, 0x17, 0x0b, 0xe0,
  0x00, 0x07, 0xfb, 0xf3, 0x17, 0x29, 0x36, 0xeb, 0xfd, 0xf0, 0x07, 0xef,
  0x06, 0x12, 0xf8, 0xfe, 0x20, 0xf3, 0xf5, 0x05, 0x21, 0x2e, 0xde, 0xf8,
  0x07, 0xda, 0x1a, 0xff, 0xea, 0xe7, 0xfd, 0x12, 0x07, 0x11, 0x00, 0x11,
  0xe8, 0x0c, 0x08, 0xef, 0x29, 0x15, 0xfc, 0xfa, 0x1b, 0xf5, 0x26, 0xf7,
  0x14, 0xe6, 0xf0, 0xf2, 0x09, 0xf8, 0x3f, 0x21, 0x0a, 0x18, 0x00, 0xd8,
  0x0e, 0x3c, 0xe6, 0xdf, 0x16, 0xe6, 0xfc, 0x08, 0xea, 0x3e, 0xe2, 0x06,
  0xde, 0xec, 0x00, 0xf7, 0xcf, 0xf2, 0xe0, 0xe6, 0xe9, 0x42, 0x3a, 0x12,
  0xde, 0xe6, 0x05, 0xf1, 0x0e, 0xf2, 0xf3, 0xe7, 0xfa, 0xdf, 0x30, 0x01,
  0xf4, 0x06, 0xfd, 0x08, 0xea, 0x24, 0xf5, 0x19, 0xe3, 0x28, 0x18, 0x05,
  0x02, 0xff, 0x09, 0x06, 0xec, 0xed, 0xff, 0x07, 0x26, 0xee, 0x21, 0xf2,
  0xd2, 0x0c, 0x08, 0xdf, 0xe7, 0xef, 0xf7, 0xbb, 0xe6, 0xd3, 0x14, 0xdb,
  0xdc, 0x20, 0x09, 0x17, 0xfc, 0xff, 0x16, 0x1d, 0xd8, 0xdb, 0xf2, 0xea,
  0xfd, 0x38, 0x1b, 0xf1, 0x19, 0xe5, 0xfb, 0xe6, 0xfe, 0x08, 0x4a, 0x00,
  0x12, 0xe9, 0xe1, 0xf2, 0x17, 0xfe, 0x07, 0x07, 0x0a, 0x06, 0x09, 0x01,
  0x07, 0x14, 0x19, 0x0f, 0x01, 0x09, 0x2c, 0xe7, 0xf9, 0xe6, 0x14, 0xfb,
  0x26, 0xe6, 0x09, 0xfe, 0x12, 0xd2, 0xd9, 0x16, 0x0b, 0xf2, 0xf2, 0x58,
  0xcf, 0x2e, 0xf7, 0x42, 0xef, 0x0e, 0xf7, 0xf4, 0x31, 0x23, 0x1a, 0xf7,
  0xfd, 0x04, 0xba, 0x33, 0xcf, 0x26, 0xce, 0xf5, 0x2b, 0x11, 0x0c, 0xed,
  0xd8, 0xf2, 0xe2, 0x14, 0x0d, 0xff, 0xe9, 0x0f, 0xf3, 0x06, 0xda, 0xff,
  0xeb, 0xf4, 0x00, 0xe2, 0x24, 0xfc, 0x0d, 0x0f, 0x02, 0xf5, 0x0a, 0x0f,
  0x02, 0xf4, 0xf8, 0x03, 0x2c, 0x06, 0xd6, 0xeb, 0xe4, 0xf0, 0x12, 0xfe,
  0x18, 0x2d, 0xe8, 0x09, 0x0a, 0xf5, 0xfa, 0x06, 0xf6, 0x2d, 0xf6, 0xec,
  0x1f, 0x25, 0xfd, 0x05, 0x1a, 0xf3, 0xc5, 0x04, 0x40, 0xf5, 0xea, 0x25,
  0x1f, 0x16, 0xe1, 0x06, 0x1d, 0x1e, 0x33, 0x17, 0xfd, 0xfe, 0xed, 0xfb,
  0x05, 0xfe, 0x14, 0x0d, 0x07, 0x03, 0xd5, 0x18, 0x3e, 0x0d, 0xf3, 0x1a,
  0xee, 0xe3, 0x39, 0xf2, 0xf2, 0xfd, 0xfa, 0x03, 0x16, 0x0c, 0xe1, 0xdb,
  0x22, 0x35, 0x09, 0xbf, 0x09, 0x24, 0xfa, 0x31, 0xe8, 0xf9, 0x28, 0x1d,
  0x1e, 0xec, 0xe4, 0x3c, 0x00, 0x12, 0x15, 0xff, 0xe1, 0x0c, 0xf3, 0xcc,
  0x04, 0x2f, 0x26, 0xfe, 0xd3, 0x07, 0xee, 0xe9, 0xd0, 0x09, 0xe1, 0x11,
  0x02, 0xfe, 0x0f, 0x19, 0x2b, 0x1c, 0x28, 0x09, 0xde, 0xf4, 0xcf, 0xf1,
  0x13, 0x00, 0x27, 0xf5, 0x03, 0x0f, 0xfc, 0xd5, 0x15, 0x21, 0xe6, 0xf3,
  0x10, 0x12, 0x0e, 0x12, 0xf2, 0x19, 0xf2, 0xf5, 0x19, 0x1d, 0x11, 0x65,
  0xf4, 0xfe, 0xf4, 0xf6, 0x29, 0xfd, 0x28, 0x10, 0x15, 0xed, 0x11, 0xe3,
  0x53, 0x29, 0xe1, 0xfa, 0xd5, 0x30, 0x08, 0x02, 0xcc, 0x25, 0xdc, 0xfe,
  0xef, 0x2a, 0xfa, 0x00, 0xfc, 0x04, 0x24, 0xf8, 0xdb, 0x01, 0x2b, 0xf4,
  0x29, 0x0f, 0xfd, 0xed, 0xfc, 0x03, 0xdb, 0xe2, 0x1a, 0xd4, 0xec, 0x16,
  0x19, 0x09, 0xe2, 0xf5, 0xf2, 0x0a, 0x35, 0xd3, 0x01, 0xd7, 0x19, 0x15,
  0x06, 0x2a, 0xe1, 0x47, 0x12, 0xe1, 0x00, 0x07, 0xaf, 0x18, 0x1a, 0xf9,
  0xee, 0x03, 0xf0, 0x0c, 0xeb, 0x0b, 0xc4, 0xc8, 0x1c, 0x38, 0x1e, 0x11,
  0x14, 0x30, 0xf6, 0x01, 0xdd, 0x2e, 0x29, 0xee, 0xef, 0xe9, 0x02, 0x11,
  0x1d, 0xef, 0x25, 0xd9, 0xff, 0xf1, 0xfe, 0xf2, 0xc6, 0xed, 0xf3, 0x17,
  0xf3, 0x23, 0xfa, 0x03, 0x08, 0xd8, 0xe4, 0x03, 0xf4, 0xf6, 0xd6, 0x35,
  0x0d, 0xe1, 0xea, 0x14, 0x29, 0xf8, 0x00, 0xe0, 0xe1, 0x0a, 0xf5, 0x2e,
  0xee, 0xd1, 0x18, 0xf8, 0x37, 0xff, 0x1b, 0x03, 0xe1, 0x16, 0xd2, 0xe6,
  0x2f, 0x13, 0xe7, 0x04, 0xc6, 0xe2, 0xf3, 0x1a, 0x18, 0x21, 0xd9, 0xf9,
  0xef, 0xf2, 0x27, 0xf9, 0xdf, 0x20, 0xe7, 0x02, 0x24, 0x03, 0x09, 0xed,
  0x07, 0xd6, 0xf3, 0x03, 0x18, 0x2b, 0x02, 0x0b, 0x17, 0xfd, 0x21, 0x0b,
  0x08, 0xf9, 0xd8, 0xf2, 0x01, 0x15, 0x03, 0x2e, 0xfe, 0xef, 0xf0, 0x96,
  0xfa, 0x26, 0xe2, 0x0c, 0xd5, 0x10, 0xe2, 0xdb, 0xf7, 0x12, 0x16, 0x01,
  0xf1, 0x0c, 0x4a, 0x9b, 0x29, 0xdd, 0x0e, 0x04, 0xc8, 0x26, 0x06, 0x23,
  0x1a, 0x10, 0xf0, 0xee, 0x26, 0x18, 0xfc, 0xfd, 0x27, 0xe6, 0xdd, 0x14,
  0xf5, 0x0a, 0xee, 0x0f, 0xff, 0x3f, 0xfa, 0xf0, 0x38, 0x33, 0x10, 0x0c,
  0x10, 0x0b, 0xf2, 0x09, 0xfe, 0x04, 0xe9, 0xd3, 0x08, 0xcb, 0xec, 0xd8,
  0x10, 0x25, 0x2c, 0x81, 0x09, 0xd2, 0xe6, 0x0e, 0x32, 0xfc, 0xe1, 0x22,
  0xf1, 0x18, 0xd7, 0x2b, 0x07, 0xdb, 0x1a, 0xbd, 0xdc, 0x12, 0x11, 0x04,
  0xbc, 0x24, 0x18, 0xd7, 0xfd, 0x1b, 0xf4, 0xe1, 0x02, 0xc6, 0xe4, 0xf9,
  0xf9, 0x11, 0xef, 0xf8, 0x16, 0x08, 0xf9, 0xd2, 0xd6, 0x0f, 0xe6, 0x14,
  0x26, 0xdd, 0x0e, 0xec, 0xfe, 0xfe, 0xf8, 0x04, 0x02, 0xfd, 0x02, 0xec,
  0x06, 0x08, 0xe1, 0xe1, 0x12, 0xc6, 0x23, 0x27, 0xf2, 0x10, 0x00, 0x14,
  0x04, 0x2e, 0xf2, 0xee, 0x03, 0x0f, 0x05, 0x17, 0xe0, 0xe8, 0x09, 0xef,
  0xe6, 0x3b, 0xef, 0xfa, 0xf1, 0x04, 0xe4, 0x19, 0xfa, 0x0d, 0x56, 0xf7,
  0xee, 0x2d, 0xc7, 0xe6, 0x06, 0x01, 0xde, 0x09, 0xe9, 0x13, 0x0b, 0x14,
  0xca, 0x2c, 0xfc, 0x1e, 0xe2, 0x32, 0x3b, 0xea, 0xd8, 0x19, 0xeb, 0x00,
  0xfa, 0x05, 0xff, 0xea, 0xf9, 0x03, 0xee, 0xfc, 0xe7, 0xe4, 0xfc, 0xeb,
  0xf0, 0xf9, 0x09, 0xcc, 0x27, 0xeb, 0x22, 0xf0, 0x01, 0x07, 0xe4, 0x05,
  0xe2, 0x02, 0x03, 0xf7, 0xc9, 0x09, 0x01, 0xf4, 0x07, 0xec, 0xf3, 0xf1,
  0xd4, 0xe6, 0xe1, 0xe4, 0xff, 0x11, 0xe1, 0xfc, 0x08, 0x16, 0xe4, 0x02,
  0xf3, 0x2b, 0xf6, 0xed, 0xdd, 0xe7, 0xda, 0x0d, 0xf0, 0xd5, 0x0a, 0xe8,
  0xf2, 0x2d, 0xe9, 0x07, 0x2e, 0xfc, 0xff, 0xff, 0x04, 0x00, 0x00, 0x00,
  0x80, 0x00, 0x00, 0x00, 0x55, 0xf9, 0xff, 0xff, 0x49, 0xf3, 0xff, 0xff,
  0x0a, 0xe2, 0xff, 0xff, 0xcd, 0xf5, 0xff, 0xff, 0x85, 0xf3, 0xff, 0xff,
  0xcf, 0xfd, 0xff, 0xff, 0x4c, 0xe9, 0xff, 0xff, 0x4e, 0xfe, 0xff, 0xff,
  0x6f, 0xf9, 0xff, 0xff, 0xe1, 0xfb, 0xff, 0xff, 0x81, 0xe5, 0xff, 0xff,
  0x78, 0x0b, 0x00, 0x00, 0xa1, 0xe9, 0xff, 0xff, 0xe0, 0xfb, 0xff, 0xff,
  0xdb, 0xfd, 0xff, 0xff, 0xc0, 0xf1, 0xff, 0xff, 0x81, 0x0f, 0x00, 0x00,
  0xf0, 0xf4, 0xff, 0xff, 0xc7, 0x11, 0x00, 0x00, 0x24, 0xf8, 0xff, 0xff,
  0x72, 0x01, 0x00, 0x00, 0x0b, 0x03, 0x00, 0x00, 0x8c, 0x05, 0x00, 0x00,
  0x29, 0xee, 0xff, 0xff, 0x58, 0xf7, 0xff, 0xff, 0x2e, 0xf2, 0xff, 0xff,
  0x43, 0x00, 0x00, 0x00, 0x58, 0xfe, 0xff, 0xff, 0x87, 0xf8, 0xff, 0xff,
  0xee, 0x16, 0x00, 0x00, 0x28, 0xfd, 0xff, 0xff, 0xf0, 0x1f, 0x00, 0x00,
  0xba, 0xfc, 0xff, 0xff, 0x04, 0x00, 0x00, 0x00, 0x00, 0x02, 0x00, 0x00,
  0xfa, 0x5d, 0xa1, 0xce, 0xfc, 0x52, 0xef, 0xfb, 0xad, 0x29, 0x08, 0x94,
  0xdf, 0x43, 0xd6, 0x19, 0xfd, 0xb7, 0xb4, 0xd8, 0xe4, 0x10, 0x5a, 0xb4,
  0x33, 0xcd, 0x49, 0x75, 0xdf, 0xdc, 0xa6, 0x05, 0x0a, 0x46, 0xf0, 0x13,
  0x52, 0xb6, 0x21, 0x42, 0xd6, 0x2f, 0x22, 0xe8, 0xde, 0x31, 0x45, 0x0e,
  0xdf, 0x32, 0x05, 0x06, 0x2f, 0xed, 0x11, 0x2d, 0xf4, 0x40, 0x07, 0x20,
  0x25, 0x05, 0x2d, 0xf2, 0xff, 0x9a, 0x00, 0xec, 0x2e, 0x2b, 0x41, 0x3d,
  0x4d, 0xb9, 0x47, 0xdf, 0x3d, 0x27, 0xea, 0xd8, 0xb4, 0x4c, 0xb0, 0x93,
  0x48, 0x1f, 0x0a, 0x01, 0xed, 0x5e, 0x3e, 0xf1, 0x58, 0xf2, 0x34, 0x6f,
  0xcf, 0xeb, 0xbe, 0x05, 0x27, 0xf9, 0x28, 0xe9, 0xf5, 0x21, 0xce, 0x32,
  0x47, 0x36, 0x15, 0x45, 0xb7, 0x0f, 0x0d, 0x2e, 0xf4, 0xfa, 0xd0, 0xff,
  0xf8, 0x11, 0x7c, 0x31, 0xea, 0xf6, 0xe0, 0xb6, 0xad, 0x3c, 0x02, 0x69,
  0x8e, 0xef, 0x2b, 0xc0, 0x00, 0x27, 0xd4, 0x53, 0xcf, 0x8b, 0x2c, 0x5f,
  0xb5, 0x24, 0x00, 0x0f, 0x17, 0x3d, 0x17, 0x0e, 0x0d, 0xda, 0xe7, 0x29,
  0xa0, 0xbb, 0xf3, 0x3a, 0xcc, 0xe2, 0x16, 0xbe, 0x53, 0x99, 0xd7, 0x00,
  0x9f, 0x46, 0x3d, 0x3a, 0xe9, 0xf7, 0x47, 0x98, 0x54, 0xd5, 0x54, 0x63,
  0xaf, 0xa4, 0xb5, 0xeb, 0xe0, 0xb0, 0xba, 0x41, 0x13, 0xea, 0x29, 0x2e,
  0x19, 0xf9, 0x27, 0xe9, 0xfb, 0xf4, 0xec, 0xd2, 0x11, 0x01, 0xdd, 0x1c,
  0xf6, 0xd8, 0x09, 0x10, 0x29, 0x1d, 0xd5, 0xb4, 0xca, 0xf5, 0xfa, 0xed,
  0xf7, 0xea, 0xd6, 0x09, 0xf9, 0xbd, 0xc6, 0x1e, 0xf8, 0xf5, 0x2e, 0x36,
  0x55, 0xa9, 0xa8, 0x19, 0xeb, 0x26, 0xf6, 0x1d, 0x04, 0xf3, 0x45, 0x1a,
  0x4d, 0xeb, 0x6d, 0xca, 0xba, 0x14, 0xf1, 0x0c, 0xcb, 0x11, 0x5d, 0x3b,
  0xa6, 0xd6, 0x8e, 0xf7, 0xe9, 0xe7, 0x2b, 0x01, 0x03, 0x2a, 0xdf, 0xfa,
  0xef, 0xe9, 0xe7, 0xef, 0xfb, 0x0e, 0xec, 0x23, 0x18, 0x13, 0x4e, 0x09,
  0x01, 0xef, 0x20, 0xd1, 0x09, 0x14, 0xfe, 0x07, 0xd8, 0x0f, 0xed, 0x30,
  0x22, 0x28, 0xc4, 0xea, 0x0b, 0x24, 0xde, 0x45, 0xd2, 0x24, 0xee, 0xdc,
  0xf7, 0xcc, 0x35, 0xd8, 0x31, 0x99, 0x1a, 0x0d, 0x23, 0x7f, 0xe4, 0xab,
  0xe6, 0xde, 0x19, 0x08, 0x35, 0x0f, 0x04, 0x66, 0xf9, 0x06, 0x3a, 0x01,
  0x12, 0xe0, 0x0a, 0x40, 0xb7, 0x4e, 0x44, 0xa6, 0x01, 0xdb, 0x2a, 0xe3,
  0x53, 0x0f, 0x14, 0x0b, 0x03, 0x3c, 0x0c, 0x27, 0xe9, 0xf6, 0x22, 0x71,
  0x0c, 0xf2, 0x4c, 0x2e, 0xfd, 0xd0, 0xcb, 0x20, 0x17, 0x15, 0x01, 0x17,
  0x1c, 0x36, 0xec, 0x74, 0x01, 0x0d, 0x3c, 0xbf, 0x0d, 0x37, 0xfa, 0x29,
  0xd7, 0xd9, 0x25, 0x19, 0x12, 0xef, 0xc4, 0x2c, 0xf7, 0x2d, 0xce, 0x48,
  0xed, 0x24, 0x9f, 0xfc, 0xc8, 0xdc, 0x41, 0x3d, 0x3e, 0xb9, 0xd2, 0xe4,
  0x22, 0xac, 0xe5, 0x1f, 0x19, 0xc1, 0x43, 0xd5, 0x0f, 0xfd, 0x19, 0xf6,
  0xf9, 0xfc, 0xe6, 0xf8, 0x03, 0x6e, 0x4b, 0xdc, 0x04, 0xc0, 0x60, 0xc1,
  0x42, 0x1c, 0xf3, 0x2e, 0xe2, 0xcf, 0x11, 0xee, 0xe2, 0x01, 0x2a, 0xcc,
  0xe2, 0xc9, 0x6a, 0xef, 0xf5, 0xcb, 0xc1, 0x0e, 0xd2, 0x15, 0xf8, 0x06,
  0x24, 0x31, 0x2e, 0x0c, 0xe3, 0x20, 0x3c, 0x4a, 0x5e, 0x43, 0x03, 0x49,
  0xc5, 0xd4, 0x36, 0xc7, 0x19, 0x10, 0x40, 0xcb, 0x29, 0x05, 0x02, 0x4d,
  0xdb, 0x1c, 0x1d, 0x3e, 0xf1, 0xfc, 0xa7, 0x0d, 0xba, 0x26, 0xbc, 0x25,
  0xbe, 0x19, 0xd9, 0xc5, 0x0b, 0x1f, 0x1a, 0xd5, 0x37, 0x54, 0xe3, 0xf2,
  0xc8, 0xc1, 0x1a, 0x2a, 0x67, 0xe2, 0xda, 0x36, 0xd3, 0x37, 0xbf, 0xe1,
  0xb3, 0xb5, 0x19, 0xf2, 0xd3, 0xc5, 0xf3, 0xff, 0xc6, 0xfe, 0xff, 0xff,
  0x04, 0x00, 0x00, 0x00, 0x40, 0x00, 0x00, 0x00, 0x39, 0x15, 0x00, 0x00,
  0x7b, 0xc9, 0xff, 0xff, 0xa2, 0xca, 0xff, 0xff, 0x2d, 0xfd, 0xff, 0xff,
  0xd4, 0x0d, 0x00, 0x00, 0x28, 0x1b, 0x00, 0x00, 0xee, 0x1d, 0x00, 0x00,
  0x1d, 0x07, 0x00, 0x00, 0xda, 0xf8, 0xff, 0xff, 0x2e, 0xea, 0xff, 0xff,
  0xd2, 0xcc, 0xff, 0xff, 0x5d, 0xe8, 0xff, 0xff, 0xf8, 0x02, 0x00, 0x00,
  0xa7, 0xfd, 0xff, 0xff, 0x69, 0xdd, 0xff, 0xff, 0xfa, 0x27, 0x00, 0x00,
  0x12, 0xff, 0xff, 0xff, 0x04, 0x00, 0x00, 0x00, 0x30, 0x00, 0x00, 0x00,
  0x19, 0x1c, 0xdf, 0x37, 0xd3, 0xdc, 0x21, 0xc0, 0x7f, 0x12, 0xe4, 0xf2,
  0x19, 0xdd, 0x2f, 0xf2, 0x09, 0x40, 0xce, 0xd7, 0x26, 0x36, 0x6e, 0x26,
  0x78, 0xc7, 0x23, 0xfe, 0xe2, 0xe6, 0x0a, 0x16, 0xc8, 0x14, 0x15, 0xff,
  0xc7, 0x3b, 0x1d, 0xe0, 0x58, 0x30, 0xe3, 0xc0, 0x44, 0x25, 0xe0, 0x49,
  0x4e, 0xff, 0xff, 0xff, 0x04, 0x00, 0x00, 0x00, 0x0c, 0x00, 0x00, 0x00,
  0x50, 0xfb, 0xff, 0xff, 0x5a, 0xe7, 0xff, 0xff, 0x9c, 0xf8, 0xff, 0xff,
  0x34, 0xff, 0xff, 0xff, 0x38, 0xff, 0xff, 0xff, 0x0f, 0x00, 0x00, 0x00,
  0x4d, 0x4c, 0x49, 0x52, 0x20, 0x43, 0x6f, 0x6e, 0x76, 0x65, 0x72, 0x74,
  0x65, 0x64, 0x2e, 0x00, 0x01, 0x00, 0x00, 0x00, 0x14, 0x00, 0x00, 0x00,
  0x00, 0x00, 0x0e, 0x00, 0x18, 0x00, 0x14, 0x00, 0x10, 0x00, 0x0c, 0x00,
  0x08, 0x00, 0x04, 0x00, 0x0e, 0x00, 0x00, 0x00, 0x14, 0x00, 0x00, 0x00,
  0x1c, 0x00, 0x00, 0x00, 0x60, 0x01, 0x00, 0x00, 0x64, 0x01, 0x00, 0x00,
  0x68, 0x01, 0x00, 0x00, 0x04, 0x00, 0x00, 0x00, 0x6d, 0x61, 0x69, 0x6e,
  0x00, 0x00, 0x00, 0x00, 0x05, 0x00, 0x00, 0x00, 0x08, 0x01, 0x00, 0x00,
  0xc0, 0x00, 0x00, 0x00, 0x88, 0x00, 0x00, 0x00, 0x50, 0x00, 0x00, 0x00,
  0x14, 0x00, 0x00, 0x00, 0x00, 0x00, 0x0e, 0x00, 0x1a, 0x00, 0x14, 0x00,
  0x10, 0x00, 0x0c, 0x00, 0x0b, 0x00, 0x04, 0x00, 0x0e, 0x00, 0x00, 0x00,
  0x1c, 0x00, 0x00, 0x00, 0x00, 0x00, 0x00, 0x09, 0x1c, 0x00, 0x00, 0x00,
  0x20, 0x00, 0x00, 0x00, 0x01, 0x00, 0x00, 0x00, 0x00, 0x00, 0x06, 0x00,
  0x08, 0x00, 0x04, 0x00, 0x06, 0x00, 0x00, 0x00, 0x00, 0x00, 0x80, 0x3f,
  0x01, 0x00, 0x00, 0x00, 0x0d, 0x00, 0x00, 0x00, 0x01, 0x00, 0x00, 0x00,
  0x0c, 0x00, 0x00, 0x00, 0x62, 0xff, 0xff, 0xff, 0x14, 0x00, 0x00, 0x00,
  0x00, 0x00, 0x00, 0x08, 0x10, 0x00, 0x00, 0x00, 0x14, 0x00, 0x00, 0x00,
  0x04, 0x00, 0x04, 0x00, 0x04, 0x00, 0x00, 0x00, 0x01, 0x00, 0x00, 0x00,
  0x0c, 0x00, 0x00, 0x00, 0x03, 0x00, 0x00, 0x00, 0x0b, 0x00, 0x00, 0x00,
  0x02, 0x00, 0x00, 0x00, 0x01, 0x00, 0x00, 0x00, 0x96, 0xff, 0xff, 0xff,
  0x10, 0x00, 0x00, 0x00, 0x00, 0x00, 0x00, 0x08, 0x10, 0x00, 0x00, 0x00,
  0x14, 0x00, 0x00, 0x00, 0x86, 0xff, 0xff, 0xff, 0x00, 0x00, 0x00, 0x01,
  0x01, 0x00, 0x00, 0x00, 0x0b, 0x00, 0x00, 0x00, 0x03, 0x00, 0x00, 0x00,
  0x0a, 0x00, 0x00, 0x00, 0x04, 0x00, 0x00, 0x00, 0x03, 0x00, 0x00, 0x00,
  0xca, 0xff, 0xff, 0xff, 0x10, 0x00, 0x00, 0x00, 0x00, 0x00, 0x00, 0x08,
  0x10, 0x00, 0x00, 0x00, 0x14, 0x00, 0x00, 0x00, 0xba, 0xff, 0xff, 0xff,
  0x00, 0x00, 0x00, 0x01, 0x01, 0x00, 0x00, 0x00, 0x0a, 0x00, 0x00, 0x00,
  0x03, 0x00, 0x00, 0x00, 0x09, 0x00, 0x00, 0x00, 0x06, 0x00, 0x00, 0x00,
  0x05, 0x00, 0x00, 0x00, 0x00, 0x00, 0x0e, 0x00, 0x16, 0x00, 0x00, 0x00,
  0x10, 0x00, 0x0c, 0x00, 0x0b, 0x00, 0x04, 0x00, 0x0e, 0x00, 0x00, 0x00,
  0x18, 0x00, 0x00, 0x00, 0x00, 0x00, 0x00, 0x08, 0x18, 0x00, 0x00, 0x00,
  0x1c, 0x00, 0x00, 0x00, 0x00, 0x00, 0x06, 0x00, 0x08, 0x00, 0x07, 0x00,
  0x06, 0x00, 0x00, 0x00, 0x00, 0x00, 0x00, 0x01, 0x01, 0x00, 0x00, 0x00,
  0x09, 0x00, 0x00, 0x00, 0x03, 0x00, 0x00, 0x00, 0x00, 0x00, 0x00, 0x00,
  0x08, 0x00, 0x00, 0x00, 0x07, 0x00, 0x00, 0x00, 0x01, 0x00, 0x00, 0x00,
  0x0d, 0x00, 0x00, 0x00, 0x01, 0x00, 0x00, 0x00, 0x00, 0x00, 0x00, 0x00,
  0x0e, 0x00, 0x00, 0x00, 0xe4, 0x17, 0x00, 0x00, 0xa4, 0x16, 0x00, 0x00,
  0x28, 0x14, 0x00, 0x00, 0x94, 0x12, 0x00, 0x00, 0xc8, 0x0f, 0x00, 0x00,
  0x34, 0x0e, 0x00, 0x00, 0x68, 0x0b, 0x00, 0x00, 0x0c, 0x0b, 0x00, 0x00,
  0x50, 0x0a, 0x00, 0x00, 0xac, 0x08, 0x00, 0x00, 0xd0, 0x05, 0x00, 0x00,
  0xf4, 0x02, 0x00, 0x00, 0x80, 0x00, 0x00, 0x00, 0x04, 0x00, 0x00, 0x00,
  0x6a, 0xe8, 0xff, 0xff, 0x00, 0x00, 0x00, 0x01, 0x18, 0x00, 0x00, 0x00,
  0x20, 0x00, 0x00, 0x00, 0x40, 0x00, 0x00, 0x00, 0x0e, 0x00, 0x00, 0x00,
  0x00, 0x00, 0x00, 0x09, 0x50, 0x00, 0x00, 0x00, 0x02, 0x00, 0x00, 0x00,
  0xff, 0xff, 0xff, 0xff, 0x03, 0x00, 0x00, 0x00, 0x54, 0xe8, 0xff, 0xff,
  0x08, 0x00, 0x00, 0x00, 0x14, 0x00, 0x00, 0x00, 0x01, 0x00, 0x00, 0x00,
  0x80, 0xff, 0xff, 0xff, 0xff, 0xff, 0xff, 0xff, 0x00, 0x00, 0x00, 0x00,
  0x01, 0x00, 0x00, 0x00, 0x00, 0x00, 0x80, 0x3b, 0x17, 0x00, 0x00, 0x00,
  0x53, 0x74, 0x61, 0x74, 0x65, 0x66, 0x75, 0x6c, 0x50, 0x61, 0x72, 0x74,
  0x69, 0x74, 0x69, 0x6f, 0x6e, 0x65, 0x64, 0x43, 0x61, 0x6c, 0x6c, 0x00,
  0x02, 0x00, 0x00, 0x00, 0x01, 0x00, 0x00, 0x00, 0x03, 0x00, 0x00, 0x00,
  0xe2, 0xe8, 0xff, 0xff, 0x00, 0x00, 0x00, 0x01, 0x18, 0x00, 0x00, 0x00,
  0x20, 0x00, 0x00, 0x00, 0x40, 0x00, 0x00, 0x00, 0x0d, 0x00, 0x00, 0x00,
  0x00, 0x00, 0x00, 0x09, 0x48, 0x02, 0x00, 0x00, 0x02, 0x00, 0x00, 0x00,
  0xff, 0xff, 0xff, 0xff, 0x03, 0x00, 0x00, 0x00, 0xcc, 0xe8, 0xff, 0xff,
  0x08, 0x00, 0x00, 0x00, 0x14, 0x00, 0x00, 0x00, 0x01, 0x00, 0x00, 0x00,
  0xeb, 0xff, 0xff, 0xff, 0xff, 0xff, 0xff, 0xff, 0x00, 0x00, 0x00, 0x00,
  0x01, 0x00, 0x00, 0x00, 0x34, 0x41, 0xf7, 0x3c, 0x0e, 0x02, 0x00, 0x00,
  0x73, 0x65, 0x71, 0x75, 0x65, 0x6e, 0x74, 0x69, 0x61, 0x6c, 0x5f, 0x31,
  0x35, 0x2f, 0x62, 0x61, 0x74, 0x63, 0x68, 0x5f, 0x6e, 0x6f, 0x72, 0x6d,
  0x61, 0x6c, 0x69, 0x7a, 0x61, 0x74, 0x69, 0x6f, 0x6e, 0x5f, 0x34, 0x34,
  0x2f, 0x62, 0x61, 0x74, 0x63, 0x68, 0x6e, 0x6f, 0x72, 0x6d, 0x2f, 0x6d,
  0x75, 0x6c, 0x5f, 0x31, 0x3b, 0x53, 0x74, 0x61, 0x74, 0x65, 0x66, 0x75,
  0x6c, 0x50, 0x61, 0x72, 0x74, 0x69, 0x74, 0x69, 0x6f, 0x6e, 0x65, 0x64,
  0x43, 0x61, 0x6c, 0x6c, 0x2f, 0x53, 0x74, 0x61, 0x74, 0x65, 0x66, 0x75,
  0x6c, 0x50, 0x61, 0x72, 0x74, 0x69, 0x74, 0x69, 0x6f, 0x6e, 0x65, 0x64,
  0x43, 0x61, 0x6c, 0x6c, 0x2f, 0x73, 0x65, 0x71, 0x75, 0x65, 0x6e, 0x74,
  0x69, 0x61, 0x6c, 0x5f, 0x31, 0x35, 0x2f, 0x62, 0x61, 0x74, 0x63, 0x68,
  0x5f, 0x6e, 0x6f, 0x72, 0x6d, 0x61, 0x6c, 0x69, 0x7a, 0x61, 0x74, 0x69,
  0x6f, 0x6e, 0x5f, 0x34, 0x34, 0x2f, 0x62, 0x61, 0x74, 0x63, 0x68, 0x6e,
  0x6f, 0x72, 0x6d, 0x2f, 0x6d, 0x75, 0x6c, 0x5f, 0x31, 0x3b, 0x73, 0x65,
  0x71, 0x75, 0x65, 0x6e, 0x74, 0x69, 0x61, 0x6c, 0x5f, 0x31, 0x35, 0x2f,
  0x62, 0x61, 0x74, 0x63, 0x68, 0x5f, 0x6e, 0x6f, 0x72, 0x6d, 0x61, 0x6c,
  0x69, 0x7a, 0x61, 0x74, 0x69, 0x6f, 0x6e, 0x5f, 0x34, 0x34, 0x2f, 0x62,
  0x61, 0x74, 0x63, 0x68, 0x6e, 0x6f, 0x72, 0x6d, 0x2f, 0x61, 0x64, 0x64,
  0x5f, 0x31, 0x3b, 0x53, 0x74, 0x61, 0x74, 0x65, 0x66, 0x75, 0x6c, 0x50,
  0x61, 0x72, 0x74, 0x69, 0x74, 0x69, 0x6f, 0x6e, 0x65, 0x64, 0x43, 0x61,
  0x6c, 0x6c, 0x2f, 0x53, 0x74, 0x61, 0x74, 0x65, 0x66, 0x75, 0x6c, 0x50,
  0x61, 0x72, 0x74, 0x69, 0x74, 0x69, 0x6f, 0x6e, 0x65, 0x64, 0x43, 0x61,
  0x6c, 0x6c, 0x2f, 0x73, 0x65, 0x71, 0x75, 0x65, 0x6e, 0x74, 0x69, 0x61,
  0x6c, 0x5f, 0x31, 0x35, 0x2f, 0x62, 0x61, 0x74, 0x63, 0x68, 0x5f, 0x6e,
  0x6f, 0x72, 0x6d, 0x61, 0x6c, 0x69, 0x7a, 0x61, 0x74, 0x69, 0x6f, 0x6e,
  0x5f, 0x34, 0x34, 0x2f, 0x62, 0x61, 0x74, 0x63, 0x68, 0x6e, 0x6f, 0x72,
  0x6d, 0x2f, 0x61, 0x64, 0x64, 0x5f, 0x31, 0x3b, 0x73, 0x65, 0x71, 0x75,
  0x65, 0x6e, 0x74, 0x69, 0x61, 0x6c, 0x5f, 0x31, 0x35, 0x2f, 0x64, 0x65,
  0x6e, 0x73, 0x65, 0x5f, 0x36, 0x30, 0x2f, 0x4d, 0x61, 0x74, 0x4d, 0x75,
  0x6c, 0x3b, 0x53, 0x74, 0x61, 0x74, 0x65, 0x66, 0x75, 0x6c, 0x50, 0x61,
  0x72, 0x74, 0x69, 0x74, 0x69, 0x6f, 0x6e, 0x65, 0x64, 0x43, 0x61, 0x6c,
  0x6c, 0x2f, 0x53, 0x74, 0x61, 0x74, 0x65, 0x66, 0x75, 0x6c, 0x50, 0x61,
  0x72, 0x74, 0x69, 0x74, 0x69, 0x6f, 0x6e, 0x65, 0x64, 0x43, 0x61, 0x6c,
  0x6c, 0x2f, 0x73, 0x65, 0x71, 0x75, 0x65, 0x6e, 0x74, 0x69, 0x61, 0x6c,
  0x5f, 0x31, 0x35, 0x2f, 0x64, 0x65, 0x6e, 0x73, 0x65, 0x5f, 0x36, 0x30,
  0x2f, 0x4d, 0x61, 0x74, 0x4d, 0x75, 0x6c, 0x3b, 0x73, 0x65, 0x71, 0x75,
  0x65, 0x6e, 0x74, 0x69, 0x61, 0x6c, 0x5f, 0x31, 0x35, 0x2f, 0x64, 0x65,
  0x6e, 0x73, 0x65, 0x5f, 0x36, 0x30, 0x2f, 0x42, 0x69, 0x61, 0x73, 0x41,
  0x64, 0x64, 0x3b, 0x53, 0x74, 0x61, 0x74, 0x65, 0x66, 0x75, 0x6c, 0x50,
  0x61, 0x72, 0x74, 0x69, 0x74, 0x69, 0x6f, 0x6e, 0x65, 0x64, 0x43, 0x61,
  0x6c, 0x6c, 0x2f, 0x53, 0x74, 0x61, 0x74, 0x65, 0x66, 0x75, 0x6c, 0x50,
  0x61, 0x72, 0x74, 0x69, 0x74, 0x69, 0x6f, 0x6e, 0x65, 0x64, 0x43, 0x61,
  0x6c, 0x6c, 0x2f, 0x73, 0x65, 0x71, 0x75, 0x65, 0x6e, 0x74, 0x69, 0x61,
  0x6c, 0x5f, 0x31, 0x35, 0x2f, 0x64, 0x65, 0x6e, 0x73, 0x65, 0x5f, 0x36,
  0x30, 0x2f, 0x42, 0x69, 0x61, 0x73, 0x41, 0x64, 0x64, 0x31, 0x00, 0x00,
  0x02, 0x00, 0x00, 0x00, 0x01, 0x00, 0x00, 0x00, 0x03, 0x00, 0x00, 0x00,
  0x52, 0xeb, 0xff, 0xff, 0x00, 0x00, 0x00, 0x01, 0x18, 0x00, 0x00, 0x00,
  0x20, 0x00, 0x00, 0x00, 0x40, 0x00, 0x00, 0x00, 0x0c, 0x00, 0x00, 0x00,
  0x00, 0x00, 0x00, 0x09, 0xb0, 0x02, 0x00, 0x00, 0x02, 0x00, 0x00, 0x00,
  0xff, 0xff, 0xff, 0xff, 0x10, 0x00, 0x00, 0x00, 0x3c, 0xeb, 0xff, 0xff,
  0x08, 0x00, 0x00, 0x00, 0x14, 0x00, 0x00, 0x00, 0x01, 0x00, 0x00, 0x00,
  0x80, 0xff, 0xff, 0xff, 0xff, 0xff, 0xff, 0xff, 0x00, 0x00, 0x00, 0x00,
  0x01, 0x00, 0x00, 0x00, 0xaf, 0x55, 0xa0, 0x3c, 0x76, 0x02, 0x00, 0x00,
  0x73, 0x65, 0x71, 0x75, 0x65, 0x6e, 0x74, 0x69, 0x61, 0x6c, 0x5f, 0x31,
  0x35, 0x2f, 0x62, 0x61, 0x74, 0x63, 0x68, 0x5f, 0x6e, 0x6f, 0x72, 0x6d,
  0x61, 0x6c, 0x69, 0x7a, 0x61, 0x74, 0x69, 0x6f, 0x6e, 0x5f, 0x34, 0x33,
  0x2f, 0x62, 0x61, 0x74, 0x63, 0x68, 0x6e, 0x6f, 0x72, 0x6d, 0x2f, 0x6d,
  0x75, 0x6c, 0x5f, 0x31, 0x3b, 0x53, 0x74, 0x61, 0x74, 0x65, 0x66, 0x75,
  0x6c, 0x50, 0x61, 0x72, 0x74, 0x69, 0x74, 0x69, 0x6f, 0x6e, 0x65, 0x64,
  0x43, 0x61, 0x6c, 0x6c, 0x2f, 0x53, 0x74, 0x61, 0x74, 0x65, 0x66, 0x75,
  0x6c, 0x50, 0x61, 0x72, 0x74, 0x69, 0x74, 0x69, 0x6f, 0x6e, 0x65, 0x64,
  0x43, 0x61, 0x6c, 0x6c, 0x2f, 0x73, 0x65, 0x71, 0x75, 0x65, 0x6e, 0x74,
  0x69, 0x61, 0x6c, 0x5f, 0x31, 0x35, 0x2f, 0x62, 0x61, 0x74, 0x63, 0x68,
  0x5f, 0x6e, 0x6f, 0x72, 0x6d, 0x61, 0x6c, 0x69, 0x7a, 0x61, 0x74, 0x69,
  0x6f, 0x6e, 0x5f, 0x34, 0x33, 0x2f, 0x62, 0x61, 0x74, 0x63, 0x68, 0x6e,
  0x6f, 0x72, 0x6d, 0x2f, 0x6d, 0x75, 0x6c, 0x5f, 0x31, 0x3b, 0x73, 0x65,
  0x71, 0x75, 0x65, 0x6e, 0x74, 0x69, 0x61, 0x6c, 0x5f, 0x31, 0x35, 0x2f,
  0x62, 0x61, 0x74, 0x63, 0x68, 0x5f, 0x6e, 0x6f, 0x72, 0x6d, 0x61, 0x6c,
  0x69, 0x7a, 0x61, 0x74, 0x69, 0x6f, 0x6e, 0x5f, 0x34, 0x33, 0x2f, 0x62,
  0x61, 0x74, 0x63, 0x68, 0x6e, 0x6f, 0x72, 0x6d, 0x2f, 0x61, 0x64, 0x64,
  0x5f, 0x31, 0x3b, 0x53, 0x74, 0x61, 0x74, 0x65, 0x66, 0x75, 0x6c, 0x50,
  0x61, 0x72, 0x74, 0x69, 0x74, 0x69, 0x6f, 0x6e, 0x65, 0x64, 0x43, 0x61,
  0x6c, 0x6c, 0x2f, 0x53, 0x74, 0x61, 0x74, 0x65, 0x66, 0x75, 0x6c, 0x50,
  0x61, 0x72, 0x74, 0x69, 0x74, 0x69, 0x6f, 0x6e, 0x65, 0x64, 0x43, 0x61,
  0x6c, 0x6c, 0x2f, 0x73, 0x65, 0x71, 0x75, 0x65, 0x6e, 0x74, 0x69, 0x61,
  0x6c, 0x5f, 0x31, 0x35, 0x2f, 0x62, 0x61, 0x74, 0x63, 0x68, 0x5f, 0x6e,
  0x6f, 0x72, 0x6d, 0x61, 0x6c, 0x69, 0x7a, 0x61, 0x74, 0x69, 0x6f, 0x6e,
  0x5f, 0x34, 0x33, 0x2f, 0x62, 0x61, 0x74, 0x63, 0x68, 0x6e, 0x6f, 0x72,
  0x6d, 0x2f, 0x61, 0x64, 0x64, 0x5f, 0x31, 0x3b, 0x73, 0x65, 0x71, 0x75,
  0x65, 0x6e, 0x74, 0x69, 0x61, 0x6c, 0x5f, 0x31, 0x35, 0x2f, 0x64, 0x65,
  0x6e, 0x73, 0x65, 0x5f, 0x35, 0x39, 0x2f, 0x4d, 0x61, 0x74, 0x4d, 0x75,
  0x6c, 0x3b, 0x53, 0x74, 0x61, 0x74, 0x65, 0x66, 0x75, 0x6c, 0x50, 0x61,
  0x72, 0x74, 0x69, 0x74, 0x69, 0x6f, 0x6e, 0x65, 0x64, 0x43, 0x61, 0x6c,
  0x6c, 0x2f, 0x53, 0x74, 0x61, 0x74, 0x65, 0x66, 0x75, 0x6c, 0x50, 0x61,
  0x72, 0x74, 0x69, 0x74, 0x69, 0x6f, 0x6e, 0x65, 0x64, 0x43, 0x61, 0x6c,
  0x6c, 0x2f, 0x73, 0x65, 0x71, 0x75, 0x65, 0x6e, 0x74, 0x69, 0x61, 0x6c,
  0x5f, 0x31, 0x35, 0x2f, 0x64, 0x65, 0x6e, 0x73, 0x65, 0x5f, 0x35, 0x39,
  0x2f, 0x4d, 0x61, 0x74, 0x4d, 0x75, 0x6c, 0x3b, 0x73, 0x65, 0x71, 0x75,
  0x65, 0x6e, 0x74, 0x69, 0x61, 0x6c, 0x5f, 0x31, 0x35, 0x2f, 0x64, 0x65,
  0x6e, 0x73, 0x65, 0x5f, 0x35, 0x39, 0x2f, 0x52, 0x65, 0x6c, 0x75, 0x3b,
  0x53, 0x74, 0x61, 0x74, 0x65, 0x66, 0x75, 0x6c, 0x50, 0x61, 0x72, 0x74,
  0x69, 0x74, 0x69, 0x6f, 0x6e, 0x65, 0x64, 0x43, 0x61, 0x6c, 0x6c, 0x2f,
  0x53, 0x74, 0x61, 0x74, 0x65, 0x66, 0x75, 0x6c, 0x50, 0x61, 0x72, 0x74,
  0x69, 0x74, 0x69, 0x6f, 0x6e, 0x65, 0x64, 0x43, 0x61, 0x6c, 0x6c, 0x2f,
  0x73, 0x65, 0x71, 0x75, 0x65, 0x6e, 0x74, 0x69, 0x61, 0x6c, 0x5f, 0x31,
  0x35, 0x2f, 0x64, 0x65, 0x6e, 0x73, 0x65, 0x5f, 0x35, 0x39, 0x2f, 0x52,
  0x65, 0x6c, 0x75, 0x3b, 0x73, 0x65, 0x71, 0x75, 0x65, 0x6e, 0x74, 0x69,
  0x61, 0x6c, 0x5f, 0x31, 0x35, 0x2f, 0x64, 0x65, 0x6e, 0x73, 0x65, 0x5f,
  0x35, 0x39, 0x2f, 0x42, 0x69, 0x61, 0x73, 0x41, 0x64, 0x64, 0x3b, 0x53,
  0x74, 0x61, 0x74, 0x65, 0x66, 0x75, 0x6c, 0x50, 0x61, 0x72, 0x74, 0x69,
  0x74, 0x69, 0x6f, 0x6e, 0x65, 0x64, 0x43, 0x61, 0x6c, 0x6c, 0x2f, 0x53,
  0x74, 0x61, 0x74, 0x65, 0x66, 0x75, 0x6c, 0x50, 0x61, 0x72, 0x74, 0x69,
  0x74, 0x69, 0x6f, 0x6e, 0x65, 0x64, 0x43, 0x61, 0x6c, 0x6c, 0x2f, 0x73,
  0x65, 0x71, 0x75, 0x65, 0x6e, 0x74, 0x69, 0x61, 0x6c, 0x5f, 0x31, 0x35,
  0x2f, 0x64, 0x65, 0x6e, 0x73, 0x65, 0x5f, 0x35, 0x39, 0x2f, 0x42, 0x69,
  0x61, 0x73, 0x41, 0x64, 0x64, 0x31, 0x00, 0x00, 0x02, 0x00, 0x00, 0x00,
  0x01, 0x00, 0x00, 0x00, 0x10, 0x00, 0x00, 0x00, 0x2a, 0xee, 0xff, 0xff,
  0x00, 0x00, 0x00, 0x01, 0x18, 0x00, 0x00, 0x00, 0x20, 0x00, 0x00, 0x00,
  0x40, 0x00, 0x00, 0x00, 0x0b, 0x00, 0x00, 0x00, 0x00, 0x00, 0x00, 0x09,
  0xb0, 0x02, 0x00, 0x00, 0x02, 0x00, 0x00, 0x00, 0xff, 0xff, 0xff, 0xff,
  0x20, 0x00, 0x00, 0x00, 0x14, 0xee, 0xff, 0xff, 0x08, 0x00, 0x00, 0x00,
  0x14, 0x00, 0x00, 0x00, 0x01, 0x00, 0x00, 0x00, 0x80, 0xff, 0xff, 0xff,
  0xff, 0xff, 0xff, 0xff, 0x00, 0x00, 0x00, 0x00, 0x01, 0x00, 0x00, 0x00,
  0xb6, 0x1f, 0xb2, 0x3c, 0x76, 0x02, 0x00, 0x00, 0x73, 0x65, 0x71, 0x75,
  0x65, 0x6e, 0x74, 0x69, 0x61, 0x6c, 0x5f, 0x31, 0x35, 0x2f, 0x62, 0x61,
  0x74, 0x63, 0x68, 0x5f, 0x6e, 0x6f, 0x72, 0x6d, 0x61, 0x6c, 0x69, 0x7a,
  0x61, 0x74, 0x69, 0x6f, 0x6e, 0x5f, 0x34, 0x32, 0x2f, 0x62, 0x61, 0x74,
  0x63, 0x68, 0x6e, 0x6f, 0x72, 0x6d, 0x2f, 0x6d, 0x75, 0x6c, 0x5f, 0x31,
  0x3b, 0x53, 0x74, 0x61, 0x74, 0x65, 0x66, 0x75, 0x6c, 0x50, 0x61, 0x72,
  0x74, 0x69, 0x74, 0x69, 0x6f, 0x6e, 0x65, 0x64, 0x43, 0x61, 0x6c, 0x6c,
  0x2f, 0x53, 0x74, 0x61, 0x74, 0x65, 0x66, 0x75, 0x6c, 0x50, 0x61, 0x72,
  0x74, 0x69, 0x74, 0x69, 0x6f, 0x6e, 0x65, 0x64, 0x43, 0x61, 0x6c, 0x6c,
  0x2f, 0x73, 0x65, 0x71, 0x75, 0x65, 0x6e, 0x74, 0x69, 0x61, 0x6c, 0x5f,
  0x31, 0x35, 0x2f, 0x62, 0x61, 0x74, 0x63, 0x68, 0x5f, 0x6e, 0x6f, 0x72,
  0x6d, 0x61, 0x6c, 0x69, 0x7a, 0x61, 0x74, 0x69, 0x6f, 0x6e, 0x5f, 0x34,
  0x32, 0x2f, 0x62, 0x61, 0x74, 0x63, 0x68, 0x6e, 0x6f, 0x72, 0x6d, 0x2f,
  0x6d, 0x75, 0x6c, 0x5f, 0x31, 0x3b, 0x73, 0x65, 0x71, 0x75, 0x65, 0x6e,
  0x74, 0x69, 0x61, 0x6c, 0x5f, 0x31, 0x35, 0x2f, 0x62, 0x61, 0x74, 0x63,
  0x68, 0x5f, 0x6e, 0x6f, 0x72, 0x6d, 0x61, 0x6c, 0x69, 0x7a, 0x61, 0x74,
  0x69, 0x6f, 0x6e, 0x5f, 0x34, 0x32, 0x2f, 0x62, 0x61, 0x74, 0x63, 0x68,
  0x6e, 0x6f, 0x72, 0x6d, 0x2f, 0x61, 0x64, 0x64, 0x5f, 0x31, 0x3b, 0x53,
  0x74, 0x61, 0x74, 0x65, 0x66, 0x75, 0x6c, 0x50, 0x61, 0x72, 0x74, 0x69,
  0x74, 0x69, 0x6f, 0x6e, 0x65, 0x64, 0x43, 0x61, 0x6c, 0x6c, 0x2f, 0x53,
  0x74, 0x61, 0x74, 0x65, 0x66, 0x75, 0x6c, 0x50, 0x61, 0x72, 0x74, 0x69,
  0x74, 0x69, 0x6f, 0x6e, 0x65, 0x64, 0x43, 0x61, 0x6c, 0x6c, 0x2f, 0x73,
  0x65, 0x71, 0x75, 0x65, 0x6e, 0x74, 0x69, 0x61, 0x6c, 0x5f, 0x31, 0x35,
  0x2f, 0x62, 0x61, 0x74, 0x63, 0x68, 0x5f, 0x6e, 0x6f, 0x72, 0x6d, 0x61,
  0x6c, 0x69, 0x7a, 0x61, 0x74, 0x69, 0x6f, 0x6e, 0x5f, 0x34, 0x32, 0x2f,
  0x62, 0x61, 0x74, 0x63, 0x68, 0x6e, 0x6f, 0x72, 0x6d, 0x2f, 0x61, 0x64,
  0x64, 0x5f, 0x31, 0x3b, 0x73, 0x65, 0x71, 0x75, 0x65, 0x6e, 0x74, 0x69,
  0x61, 0x6c, 0x5f, 0x31, 0x35, 0x2f, 0x64, 0x65, 0x6e, 0x73, 0x65, 0x5f,
  0x35, 0x38, 0x2f, 0x4d, 0x61, 0x74, 0x4d, 0x75, 0x6c, 0x3b, 0x53, 0x74,
  0x61, 0x74, 0x65, 0x66, 0x75, 0x6c, 0x50, 0x61, 0x72, 0x74, 0x69, 0x74,
  0x69, 0x6f, 0x6e, 0x65, 0x64, 0x43, 0x61, 0x6c, 0x6c, 0x2f, 0x53, 0x74,
  0x61, 0x74, 0x65, 0x66, 0x75, 0x6c, 0x50, 0x61, 0x72, 0x74, 0x69, 0x74,
  0x69, 0x6f, 0x6e, 0x65, 0x64, 0x43, 0x61, 0x6c, 0x6c, 0x2f, 0x73, 0x65,
  0x71, 0x75, 0x65, 0x6e, 0x74, 0x69, 0x61, 0x6c, 0x5f, 0x31, 0x35, 0x2f,
  0x64, 0x65, 0x6e, 0x73, 0x65, 0x5f, 0x35, 0x38, 0x2f, 0x4d, 0x61, 0x74,
  0x4d, 0x75, 0x6c, 0x3b, 0x73, 0x65, 0x71, 0x75, 0x65, 0x6e, 0x74, 0x69,
  0x61, 0x6c, 0x5f, 0x31, 0x35, 0x2f, 0x64, 0x65, 0x6e, 0x73, 0x65, 0x5f,
  0x35, 0x38, 0x2f, 0x52, 0x65, 0x6c, 0x75, 0x3b, 0x53, 0x74, 0x61, 0x74,
  0x65, 0x66, 0x75, 0x6c, 0x50, 0x61, 0x72, 0x74, 0x69, 0x74, 0x69, 0x6f,
  0x6e, 0x65, 0x64, 0x43, 0x61, 0x6c, 0x6c, 0x2f, 0x53, 0x74, 0x61, 0x74,
  0x65, 0x66, 0x75, 0x6c, 0x50, 0x61, 0x72, 0x74, 0x69, 0x74, 0x69, 0x6f,
  0x6e, 0x65, 0x64, 0x43, 0x61, 0x6c, 0x6c, 0x2f, 0x73, 0x65, 0x71, 0x75,
  0x65, 0x6e, 0x74, 0x69, 0x61, 0x6c, 0x5f, 0x31, 0x35, 0x2f, 0x64, 0x65,
  0x6e, 0x73, 0x65, 0x5f, 0x35, 0x38, 0x2f, 0x52, 0x65, 0x6c, 0x75, 0x3b,
  0x73, 0x65, 0x71, 0x75, 0x65, 0x6e, 0x74, 0x69, 0x61, 0x6c, 0x5f, 0x31,
  0x35, 0x2f, 0x64, 0x65, 0x6e, 0x73, 0x65, 0x5f, 0x35, 0x38, 0x2f, 0x42,
  0x69, 0x61, 0x73, 0x41, 0x64, 0x64, 0x3b, 0x53, 0x74, 0x61, 0x74, 0x65,
  0x66, 0x75, 0x6c, 0x50, 0x61, 0x72, 0x74, 0x69, 0x74, 0x69, 0x6f, 0x6e,
  0x65, 0x64, 0x43, 0x61, 0x6c, 0x6c, 0x2f, 0x53, 0x74, 0x61, 0x74, 0x65,
  0x66, 0x75, 0x6c, 0x50, 0x61, 0x72, 0x74, 0x69, 0x74, 0x69, 0x6f, 0x6e,
  0x65, 0x64, 0x43, 0x61, 0x6c, 0x6c, 0x2f, 0x73, 0x65, 0x71, 0x75, 0x65,
  0x6e, 0x74, 0x69, 0x61, 0x6c, 0x5f, 0x31, 0x35, 0x2f, 0x64, 0x65, 0x6e,
  0x73, 0x65, 0x5f, 0x35, 0x38, 0x2f, 0x42, 0x69, 0x61, 0x73, 0x41, 0x64,
  0x64, 0x31, 0x00, 0x00, 0x02, 0x00, 0x00, 0x00, 0x01, 0x00, 0x00, 0x00,
  0x20, 0x00, 0x00, 0x00, 0x02, 0xf1, 0xff, 0xff, 0x00, 0x00, 0x00, 0x01,
  0x18, 0x00, 0x00, 0x00, 0x20, 0x00, 0x00, 0x00, 0x3c, 0x00, 0x00, 0x00,
  0x0a, 0x00, 0x00, 0x00, 0x00, 0x00, 0x00, 0x09, 0x78, 0x01, 0x00, 0x00,
  0x02, 0x00, 0x00, 0x00, 0xff, 0xff, 0xff, 0xff, 0x40, 0x00, 0x00, 0x00,
  0xec, 0xf0, 0xff, 0xff, 0x08, 0x00, 0x00, 0x00, 0x10, 0x00, 0x00, 0x00,
  0x01, 0x00, 0x00, 0x00, 0x80, 0xff, 0xff, 0xff, 0xff, 0xff, 0xff, 0xff,
  0x01, 0x00, 0x00, 0x00, 0x9d, 0x52, 0xc0, 0x3c, 0x41, 0x01, 0x00, 0x00,
  0x73, 0x65, 0x71, 0x75, 0x65, 0x6e, 0x74, 0x69, 0x61, 0x6c, 0x5f, 0x31,
  0x35, 0x2f, 0x64, 0x65, 0x6e, 0x73, 0x65, 0x5f, 0x35, 0x37, 0x2f, 0x4d,
  0x61, 0x74, 0x4d, 0x75, 0x6c, 0x3b, 0x53, 0x74, 0x61, 0x74, 0x65, 0x66,
  0x75, 0x6c, 0x50, 0x61, 0x72, 0x74, 0x69, 0x74, 0x69, 0x6f, 0x6e, 0x65,
  0x64, 0x43, 0x61, 0x6c, 0x6c, 0x2f, 0x53, 0x74, 0x61, 0x74, 0x65, 0x66,
  0x75, 0x6c, 0x50, 0x61, 0x72, 0x74, 0x69, 0x74, 0x69, 0x6f, 0x6e, 0x65,
  0x64, 0x43, 0x61, 0x6c, 0x6c, 0x2f, 0x73, 0x65, 0x71, 0x75, 0x65, 0x6e,
  0x74, 0x69, 0x61, 0x6c, 0x5f, 0x31, 0x35, 0x2f, 0x64, 0x65, 0x6e, 0x73,
  0x65, 0x5f, 0x35, 0x37, 0x2f, 0x4d, 0x61, 0x74, 0x4d, 0x75, 0x6c, 0x3b,
  0x73, 0x65, 0x71, 0x75, 0x65, 0x6e, 0x74, 0x69, 0x61, 0x6c, 0x5f, 0x31,
  0x35, 0x2f, 0x64, 0x65, 0x6e, 0x73, 0x65, 0x5f, 0x35, 0x37, 0x2f, 0x52,
  0x65, 0x6c, 0x75, 0x3b, 0x53, 0x74, 0x61, 0x74, 0x65, 0x66, 0x75, 0x6c,
  0x50, 0x61, 0x72, 0x74, 0x69, 0x74, 0x69, 0x6f, 0x6e, 0x65, 0x64, 0x43,
  0x61, 0x6c, 0x6c, 0x2f, 0x53, 0x74, 0x61, 0x74, 0x65, 0x66, 0x75, 0x6c,
  0x50, 0x61, 0x72, 0x74, 0x69, 0x74, 0x69, 0x6f, 0x6e, 0x65, 0x64, 0x43,
  0x61, 0x6c, 0x6c, 0x2f, 0x73, 0x65, 0x71, 0x75, 0x65, 0x6e, 0x74, 0x69,
  0x61, 0x6c, 0x5f, 0x31, 0x35, 0x2f, 0x64, 0x65, 0x6e, 0x73, 0x65, 0x5f,
  0x35, 0x37, 0x2f, 0x52, 0x65, 0x6c, 0x75, 0x3b, 0x73, 0x65, 0x71, 0x75,
  0x65, 0x6e, 0x74, 0x69, 0x61, 0x6c, 0x5f, 0x31, 0x35, 0x2f, 0x64, 0x65,
  0x6e, 0x73, 0x65, 0x5f, 0x35, 0x37, 0x2f, 0x42, 0x69, 0x61, 0x73, 0x41,
  0x64, 0x64, 0x3b, 0x53, 0x74, 0x61, 0x74, 0x65, 0x66, 0x75, 0x6c, 0x50,
  0x61, 0x72, 0x74, 0x69, 0x74, 0x69, 0x6f, 0x6e, 0x65, 0x64, 0x43, 0x61,
  0x6c, 0x6c, 0x2f, 0x53, 0x74, 0x61, 0x74, 0x65, 0x66, 0x75, 0x6c, 0x50,
  0x61, 0x72, 0x74, 0x69, 0x74, 0x69, 0x6f, 0x6e, 0x65, 0x64, 0x43, 0x61,
  0x6c, 0x6c, 0x2f, 0x73, 0x65, 0x71, 0x75, 0x65, 0x6e, 0x74, 0x69, 0x61,
  0x6c, 0x5f, 0x31, 0x35, 0x2f, 0x64, 0x65, 0x6e, 0x73, 0x65, 0x5f, 0x35,
  0x37, 0x2f, 0x42, 0x69, 0x61, 0x73, 0x41, 0x64, 0x64, 0x00, 0x00, 0x00,
  0x02, 0x00, 0x00, 0x00, 0x01, 0x00, 0x00, 0x00, 0x40, 0x00, 0x00, 0x00,
  0xde, 0xf3, 0xff, 0xff, 0x00, 0x00, 0x00, 0x01, 0x14, 0x00, 0x00, 0x00,
  0x30, 0x00, 0x00, 0x00, 0x09, 0x00, 0x00, 0x00, 0x00, 0x00, 0x00, 0x09,
  0x94, 0x00, 0x00, 0x00, 0x7c, 0xf2, 0xff, 0xff, 0x08, 0x00, 0x00, 0x00,
  0x10, 0x00, 0x00, 0x00, 0x01, 0x00, 0x00, 0x00, 0x00, 0x00, 0x00, 0x00,
  0x00, 0x00, 0x00, 0x00, 0x01, 0x00, 0x00, 0x00, 0x7b, 0x6c, 0x89, 0x3b,
  0x6b, 0x00, 0x00, 0x00, 0x73, 0x65, 0x71, 0x75, 0x65, 0x6e, 0x74, 0x69,
  0x61, 0x6c, 0x5f, 0x31, 0x35, 0x2f, 0x64, 0x65, 0x6e, 0x73, 0x65, 0x5f,
  0x35, 0x37, 0x2f, 0x4d, 0x61, 0x74, 0x4d, 0x75, 0x6c, 0x3b, 0x53, 0x74,
  0x61, 0x74, 0x65, 0x66, 0x75, 0x6c, 0x50, 0x61, 0x72, 0x74, 0x69, 0x74,
  0x69, 0x6f, 0x6e, 0x65, 0x64, 0x43, 0x61, 0x6c, 0x6c, 0x2f, 0x53, 0x74,
  0x61, 0x74, 0x65, 0x66, 0x75, 0x6c, 0x50, 0x61, 0x72, 0x74, 0x69, 0x74,
  0x69, 0x6f, 0x6e, 0x65, 0x64, 0x43, 0x61, 0x6c, 0x6c, 0x2f, 0x73, 0x65,
  0x71, 0x75, 0x65, 0x6e, 0x74, 0x69, 0x61, 0x6c, 0x5f, 0x31, 0x35, 0x2f,
  0x64, 0x65, 0x6e, 0x73, 0x65, 0x5f, 0x35, 0x37, 0x2f, 0x4d, 0x61, 0x74,
  0x4d, 0x75, 0x6c, 0x00, 0x02, 0x00, 0x00, 0x00, 0x40, 0x00, 0x00, 0x00,
  0x1b, 0x00, 0x00, 0x00, 0x96, 0xf4, 0xff, 0xff, 0x00, 0x00, 0x00, 0x01,
  0x14, 0x00, 0x00, 0x00, 0x30, 0x00, 0x00, 0x00, 0x08, 0x00, 0x00, 0x00,
  0x00, 0x00, 0x00, 0x02, 0x38, 0x00, 0x00, 0x00, 0x34, 0xf3, 0xff, 0xff,
  0x08, 0x00, 0x00, 0x00, 0x10, 0x00, 0x00, 0x00, 0x01, 0x00, 0x00, 0x00,
  0x00, 0x00, 0x00, 0x00, 0x00, 0x00, 0x00, 0x00, 0x01, 0x00, 0x00, 0x00,
  0xa2, 0x9e, 0x17, 0x39, 0x0d, 0x00, 0x00, 0x00, 0x64, 0x65, 0x6e, 0x73,
  0x65, 0x5f, 0x35, 0x37, 0x2f, 0x62, 0x69, 0x61, 0x73, 0x00, 0x00, 0x00,
  0x01, 0x00, 0x00, 0x00, 0x40, 0x00, 0x00, 0x00, 0xee, 0xf4, 0xff, 0xff,
  0x00, 0x00, 0x00, 0x01, 0x14, 0x00, 0x00, 0x00, 0x34, 0x00, 0x00, 0x00,
  0x07, 0x00, 0x00, 0x00, 0x00, 0x00, 0x00, 0x09, 0xa4, 0x02, 0x00, 0x00,
  0x8c, 0xf3, 0xff, 0xff, 0x08, 0x00, 0x00, 0x00, 0x14, 0x00, 0x00, 0x00,
  0x01, 0x00, 0x00, 0x00, 0x00, 0x00, 0x00, 0x00, 0x00, 0x00, 0x00, 0x00,
  0x00, 0x00, 0x00, 0x00, 0x01, 0x00, 0x00, 0x00, 0x63, 0x7b, 0x36, 0x3c,
  0x75, 0x02, 0x00, 0x00, 0x73, 0x65, 0x71, 0x75, 0x65, 0x6e, 0x74, 0x69,
  0x61, 0x6c, 0x5f, 0x31, 0x35, 0x2f, 0x62, 0x61, 0x74, 0x63, 0x68, 0x5f,
  0x6e, 0x6f, 0x72, 0x6d, 0x61, 0x6c, 0x69, 0x7a, 0x61, 0x74, 0x69, 0x6f,
  0x6e, 0x5f, 0x34, 0x32, 0x2f, 0x62, 0x61, 0x74, 0x63, 0x68, 0x6e, 0x6f,
  0x72, 0x6d, 0x2f, 0x6d, 0x75, 0x6c, 0x5f, 0x31, 0x3b, 0x53, 0x74, 0x61,
  0x74, 0x65, 0x66, 0x75, 0x6c, 0x50, 0x61, 0x72, 0x74, 0x69, 0x74, 0x69,
  0x6f, 0x6e, 0x65, 0x64, 0x43, 0x61, 0x6c, 0x6c, 0x2f, 0x53, 0x74, 0x61,
  0x74, 0x65, 0x66, 0x75, 0x6c, 0x50, 0x61, 0x72, 0x74, 0x69, 0x74, 0x69,
  0x6f, 0x6e, 0x65, 0x64, 0x43, 0x61, 0x6c, 0x6c, 0x2f, 0x73, 0x65, 0x71,
  0x75, 0x65, 0x6e, 0x74, 0x69, 0x61, 0x6c, 0x5f, 0x31, 0x35, 0x2f, 0x62,
  0x61, 0x74, 0x63, 0x68, 0x5f, 0x6e, 0x6f, 0x72, 0x6d, 0x61, 0x6c, 0x69,
  0x7a, 0x61, 0x74, 0x69, 0x6f, 0x6e, 0x5f, 0x34, 0x32, 0x2f, 0x62, 0x61,
  0x74, 0x63, 0x68, 0x6e, 0x6f, 0x72, 0x6d, 0x2f, 0x6d, 0x75, 0x6c, 0x5f,
  0x31, 0x3b, 0x73, 0x65, 0x71, 0x75, 0x65, 0x6e, 0x74, 0x69, 0x61, 0x6c,
  0x5f, 0x31, 0x35, 0x2f, 0x62, 0x61, 0x74, 0x63, 0x68, 0x5f, 0x6e, 0x6f,
  0x72, 0x6d, 0x61, 0x6c, 0x69, 0x7a, 0x61, 0x74, 0x69, 0x6f, 0x6e, 0x5f,
  0x34, 0x32, 0x2f, 0x62, 0x61, 0x74, 0x63, 0x68, 0x6e, 0x6f, 0x72, 0x6d,
  0x2f, 0x61, 0x64, 0x64, 0x5f, 0x31, 0x3b, 0x53, 0x74, 0x61, 0x74, 0x65,
  0x66, 0x75, 0x6c, 0x50, 0x61, 0x72, 0x74, 0x69, 0x74, 0x69, 0x6f, 0x6e,
  0x65, 0x64, 0x43, 0x61, 0x6c, 0x6c, 0x2f, 0x53, 0x74, 0x61, 0x74, 0x65,
  0x66, 0x75, 0x6c, 0x50, 0x61, 0x72, 0x74, 0x69, 0x74, 0x69, 0x6f, 0x6e,
  0x65, 0x64, 0x43, 0x61, 0x6c, 0x6c, 0x2f, 0x73, 0x65, 0x71, 0x75, 0x65,
  0x6e, 0x74, 0x69, 0x61, 0x6c, 0x5f, 0x31, 0x35, 0x2f, 0x62, 0x61, 0x74,
  0x63, 0x68, 0x5f, 0x6e, 0x6f, 0x72, 0x6d, 0x61, 0x6c, 0x69, 0x7a, 0x61,
  0x74, 0x69, 0x6f, 0x6e, 0x5f, 0x34, 0x32, 0x2f, 0x62, 0x61, 0x74, 0x63,
  0x68, 0x6e, 0x6f, 0x72, 0x6d, 0x2f, 0x61, 0x64, 0x64, 0x5f, 0x31, 0x3b,
  0x73, 0x65, 0x71, 0x75, 0x65, 0x6e, 0x74, 0x69, 0x61, 0x6c, 0x5f, 0x31,
  0x35, 0x2f, 0x64, 0x65, 0x6e, 0x73, 0x65, 0x5f, 0x35, 0x38, 0x2f, 0x4d,
  0x61, 0x74, 0x4d, 0x75, 0x6c, 0x3b, 0x53, 0x74, 0x61, 0x74, 0x65, 0x66,
  0x75, 0x6c, 0x50, 0x61, 0x72, 0x74, 0x69, 0x74, 0x69, 0x6f, 0x6e, 0x65,
  0x64, 0x43, 0x61, 0x6c, 0x6c, 0x2f, 0x53, 0x74, 0x61, 0x74, 0x65, 0x66,
  0x75, 0x6c, 0x50, 0x61, 0x72, 0x74, 0x69, 0x74, 0x69, 0x6f, 0x6e, 0x65,
  0x64, 0x43, 0x61, 0x6c, 0x6c, 0x2f, 0x73, 0x65, 0x71, 0x75, 0x65, 0x6e,
  0x74, 0x69, 0x61, 0x6c, 0x5f, 0x31, 0x35, 0x2f, 0x64, 0x65, 0x6e, 0x73,
  0x65, 0x5f, 0x35, 0x38, 0x2f, 0x4d, 0x61, 0x74, 0x4d, 0x75, 0x6c, 0x3b,
  0x73, 0x65, 0x71, 0x75, 0x65, 0x6e, 0x74, 0x69, 0x61, 0x6c, 0x5f, 0x31,
  0x35, 0x2f, 0x64, 0x65, 0x6e, 0x73, 0x65, 0x5f, 0x35, 0x38, 0x2f, 0x52,
  0x65, 0x6c, 0x75, 0x3b, 0x53, 0x74, 0x61, 0x74, 0x65, 0x66, 0x75, 0x6c,
  0x50, 0x61, 0x72, 0x74, 0x69, 0x74, 0x69, 0x6f, 0x6e, 0x65, 0x64, 0x43,
  0x61, 0x6c, 0x6c, 0x2f, 0x53, 0x74, 0x61, 0x74, 0x65, 0x66, 0x75, 0x6c,
  0x50, 0x61, 0x72, 0x74, 0x69, 0x74, 0x69, 0x6f, 0x6e, 0x65, 0x64, 0x43,
  0x61, 0x6c, 0x6c, 0x2f, 0x73, 0x65, 0x71, 0x75, 0x65, 0x6e, 0x74, 0x69,
  0x61, 0x6c, 0x5f, 0x31, 0x35, 0x2f, 0x64, 0x65, 0x6e, 0x73, 0x65, 0x5f,
  0x35, 0x38, 0x2f, 0x52, 0x65, 0x6c, 0x75, 0x3b, 0x73, 0x65, 0x71, 0x75,
  0x65, 0x6e, 0x74, 0x69, 0x61, 0x6c, 0x5f, 0x31, 0x35, 0x2f, 0x64, 0x65,
  0x6e, 0x73, 0x65, 0x5f, 0x35, 0x38, 0x2f, 0x42, 0x69, 0x61, 0x73, 0x41,
  0x64, 0x64, 0x3b, 0x53, 0x74, 0x61, 0x74, 0x65, 0x66, 0x75, 0x6c, 0x50,
  0x61, 0x72, 0x74, 0x69, 0x74, 0x69, 0x6f, 0x6e, 0x65, 0x64, 0x43, 0x61,
  0x6c, 0x6c, 0x2f, 0x53, 0x74, 0x61, 0x74, 0x65, 0x66, 0x75, 0x6c, 0x50,
  0x61, 0x72, 0x74, 0x69, 0x74, 0x69, 0x6f, 0x6e, 0x65, 0x64, 0x43, 0x61,
  0x6c, 0x6c, 0x2f, 0x73, 0x65, 0x71, 0x75, 0x65, 0x6e, 0x74, 0x69, 0x61,
  0x6c, 0x5f, 0x31, 0x35, 0x2f, 0x64, 0x65, 0x6e, 0x73, 0x65, 0x5f, 0x35,
  0x38, 0x2f, 0x42, 0x69, 0x61, 0x73, 0x41, 0x64, 0x64, 0x00, 0x00, 0x00,
  0x02, 0x00, 0x00, 0x00, 0x20, 0x00, 0x00, 0x00, 0x40, 0x00, 0x00, 0x00,
  0xb6, 0xf7, 0xff, 0xff, 0x00, 0x00, 0x00, 0x01, 0x14, 0x00, 0x00, 0x00,
  0x34, 0x00, 0x00, 0x00, 0x06, 0x00, 0x00, 0x00, 0x00, 0x00, 0x00, 0x02,
  0x70, 0x01, 0x00, 0x00, 0x54, 0xf6, 0xff, 0xff, 0x08, 0x00, 0x00, 0x00,
  0x14, 0x00, 0x00, 0x00, 0x01, 0x00, 0x00, 0x00, 0x00, 0x00, 0x00, 0x00,
  0x00, 0x00, 0x00, 0x00, 0x00, 0x00, 0x00, 0x00, 0x01, 0x00, 0x00, 0x00,
  0x6e, 0x17, 0x89, 0x39, 0x41, 0x01, 0x00, 0x00, 0x73, 0x65, 0x71, 0x75,
  0x65, 0x6e, 0x74, 0x69, 0x61, 0x6c, 0x5f, 0x31, 0x35, 0x2f, 0x64, 0x65,
  0x6e, 0x73, 0x65, 0x5f, 0x35, 0x38, 0x2f, 0x4d, 0x61, 0x74, 0x4d, 0x75,
  0x6c, 0x3b, 0x53, 0x74, 0x61, 0x74, 0x65, 0x66, 0x75, 0x6c, 0x50, 0x61,
  0x72, 0x74, 0x69, 0x74, 0x69, 0x6f, 0x6e, 0x65, 0x64, 0x43, 0x61, 0x6c,
  0x6c, 0x2f, 0x53, 0x74, 0x61, 0x74, 0x65, 0x66, 0x75, 0x6c, 0x50, 0x61,
  0x72, 0x74, 0x69, 0x74, 0x69, 0x6f, 0x6e, 0x65, 0x64, 0x43, 0x61, 0x6c,
  0x6c, 0x2f, 0x73, 0x65, 0x71, 0x75, 0x65, 0x6e, 0x74, 0x69, 0x61, 0x6c,
  0x5f, 0x31, 0x35, 0x2f, 0x64, 0x65, 0x6e, 0x73, 0x65, 0x5f, 0x35, 0x38,
  0x2f, 0x4d, 0x61, 0x74, 0x4d, 0x75, 0x6c, 0x3b, 0x73, 0x65, 0x71, 0x75,
  0x65, 0x6e, 0x74, 0x69, 0x61, 0x6c, 0x5f, 0x31, 0x35, 0x2f, 0x64, 0x65,
  0x6e, 0x73, 0x65, 0x5f, 0x35, 0x38, 0x2f, 0x52, 0x65, 0x6c, 0x75, 0x3b,
  0x53, 0x74, 0x61, 0x74, 0x65, 0x66, 0x75, 0x6c, 0x50, 0x61, 0x72, 0x74,
  0x69, 0x74, 0x69, 0x6f, 0x6e, 0x65, 0x64, 0x43, 0x61, 0x6c, 0x6c, 0x2f,
  0x53, 0x74, 0x61, 0x74, 0x65, 0x66, 0x75, 0x6c, 0x50, 0x61, 0x72, 0x74,
  0x69, 0x74, 0x69, 0x6f, 0x6e, 0x65, 0x64, 0x43, 0x61, 0x6c, 0x6c, 0x2f,
  0x73, 0x65, 0x71, 0x75, 0x65, 0x6e, 0x74, 0x69, 0x61, 0x6c, 0x5f, 0x31,
  0x35, 0x2f, 0x64, 0x65, 0x6e, 0x73, 0x65, 0x5f, 0x35, 0x38, 0x2f, 0x52,
  0x65, 0x6c, 0x75, 0x3b, 0x73, 0x65, 0x71, 0x75, 0x65, 0x6e, 0x74, 0x69,
  0x61, 0x6c, 0x5f, 0x31, 0x35, 0x2f, 0x64, 0x65, 0x6e, 0x73, 0x65, 0x5f,
  0x35, 0x38, 0x2f, 0x42, 0x69, 0x61, 0x73, 0x41, 0x64, 0x64, 0x3b, 0x53,
  0x74, 0x61, 0x74, 0x65, 0x66, 0x75, 0x6c, 0x50, 0x61, 0x72, 0x74, 0x69,
  0x74, 0x69, 0x6f, 0x6e, 0x65, 0x64, 0x43, 0x61, 0x6c, 0x6c, 0x2f, 0x53,
  0x74, 0x61, 0x74, 0x65, 0x66, 0x75, 0x6c, 0x50, 0x61, 0x72, 0x74, 0x69,
  0x74, 0x69, 0x6f, 0x6e, 0x65, 0x64, 0x43, 0x61, 0x6c, 0x6c, 0x2f, 0x73,
  0x65, 0x71, 0x75, 0x65, 0x6e, 0x74, 0x69, 0x61, 0x6c, 0x5f, 0x31, 0x35,
  0x2f, 0x64, 0x65, 0x6e, 0x73, 0x65, 0x5f, 0x35, 0x38, 0x2f, 0x42, 0x69,
  0x61, 0x73, 0x41, 0x64, 0x64, 0x00, 0x00, 0x00, 0x01, 0x00, 0x00, 0x00,
  0x20, 0x00, 0x00, 0x00, 0x46, 0xf9, 0xff, 0xff, 0x00, 0x00, 0x00, 0x01,
  0x14, 0x00, 0x00, 0x00, 0x34, 0x00, 0x00, 0x00, 0x05, 0x00, 0x00, 0x00,
  0x00, 0x00, 0x00, 0x09, 0xa4, 0x02, 0x00, 0x00, 0xe4, 0xf7, 0xff, 0xff,
  0x08, 0x00, 0x00, 0x00, 0x14, 0x00, 0x00, 0x00, 0x01, 0x00, 0x00, 0x00,
  0x00, 0x00, 0x00, 0x00, 0x00, 0x00, 0x00, 0x00, 0x00, 0x00, 0x00, 0x00,
  0x01, 0x00, 0x00, 0x00, 0xe4, 0x69, 0xa7, 0x3b, 0x75, 0x02, 0x00, 0x00,
  0x73, 0x65, 0x71, 0x75, 0x65, 0x6e, 0x74, 0x69, 0x61, 0x6c, 0x5f, 0x31,
  0x35, 0x2f, 0x62, 0x61, 0x74, 0x63, 0x68, 0x5f, 0x6e, 0x6f, 0x72, 0x6d,
  0x61, 0x6c, 0x69, 0x7a, 0x61, 0x74, 0x69, 0x6f, 0x6e, 0x5f, 0x34, 0x33,
  0x2f, 0x62, 0x61, 0x74, 0x63, 0x68, 0x6e, 0x6f, 0x72, 0x6d, 0x2f, 0x6d,
  0x75, 0x6c, 0x5f, 0x31, 0x3b, 0x53, 0x74, 0x61, 0x74, 0x65, 0x66, 0x75,
  0x6c, 0x50, 0x61, 0x72, 0x74, 0x69, 0x74, 0x69, 0x6f, 0x6e, 0x65, 0x64,
  0x43, 0x61, 0x6c, 0x6c, 0x2f, 0x53, 0x74, 0x61, 0x74, 0x65, 0x66, 0x75,
  0x6c, 0x50, 0x61, 0x72, 0x74, 0x69, 0x74, 0x69, 0x6f, 0x6e, 0x65, 0x64,
  0x43, 0x61, 0x6c, 0x6c, 0x2f, 0x73, 0x65, 0x71, 0x75, 0x65, 0x6e, 0x74,
  0x69, 0x61, 0x6c, 0x5f, 0x31, 0x35, 0x2f, 0x62, 0x61, 0x74, 0x63, 0x68,
  0x5f, 0x6e, 0x6f, 0x72, 0x6d, 0x61, 0x6c, 0x69, 0x7a, 0x61, 0x74, 0x69,
  0x6f, 0x6e, 0x5f, 0x34, 0x33, 0x2f, 0x62, 0x61, 0x74, 0x63, 0x68, 0x6e,
  0x6f, 0x72, 0x6d, 0x2f, 0x6d, 0x75, 0x6c, 0x5f, 0x31, 0x3b, 0x73, 0x65,
  0x71, 0x75, 0x65, 0x6e, 0x74, 0x69, 0x61, 0x6c, 0x5f, 0x31, 0x35, 0x2f,
  0x62, 0x61, 0x74, 0x63, 0x68, 0x5f, 0x6e, 0x6f, 0x72, 0x6d, 0x61, 0x6c,
  0x69, 0x7a, 0x61, 0x74, 0x69, 0x6f, 0x6e, 0x5f, 0x34, 0x33, 0x2f, 0x62,
  0x61, 0x74, 0x63, 0x68, 0x6e, 0x6f, 0x72, 0x6d, 0x2f, 0x61, 0x64, 0x64,
  0x5f, 0x31, 0x3b, 0x53, 0x74, 0x61, 0x74, 0x65, 0x66, 0x75, 0x6c, 0x50,
  0x61, 0x72, 0x74, 0x69, 0x74, 0x69, 0x6f, 0x6e, 0x65, 0x64, 0x43, 0x61,
  0x6c, 0x6c, 0x2f, 0x53, 0x74, 0x61, 0x74, 0x65, 0x66, 0x75, 0x6c, 0x50,
  0x61, 0x72, 0x74, 0x69, 0x74, 0x69, 0x6f, 0x6e, 0x65, 0x64, 0x43, 0x61,
  0x6c, 0x6c, 0x2f, 0x73, 0x65, 0x71, 0x75, 0x65, 0x6e, 0x74, 0x69, 0x61,
  0x6c, 0x5f, 0x31, 0x35, 0x2f, 0x62, 0x61, 0x74, 0x63, 0x68, 0x5f, 0x6e,
  0x6f, 0x72, 0x6d, 0x61, 0x6c, 0x69, 0x7a, 0x61, 0x74, 0x69, 0x6f, 0x6e,
  0x5f, 0x34, 0x33, 0x2f, 0x62, 0x61, 0x74, 0x63, 0x68, 0x6e, 0x6f, 0x72,
  0x6d, 0x2f, 0x61, 0x64, 0x64, 0x5f, 0x31, 0x3b, 0x73, 0x65, 0x71, 0x75,
  0x65, 0x6e, 0x74, 0x69, 0x61, 0x6c, 0x5f, 0x31, 0x35, 0x2f, 0x64, 0x65,
  0x6e, 0x73, 0x65, 0x5f, 0x35, 0x39, 0x2f, 0x4d, 0x61, 0x74, 0x4d, 0x75,
  0x6c, 0x3b, 0x53, 0x74, 0x61, 0x74, 0x65, 0x66, 0x75, 0x6c, 0x50, 0x61,
  0x72, 0x74, 0x69, 0x74, 0x69, 0x6f, 0x6e, 0x65, 0x64, 0x43, 0x61, 0x6c,
  0x6c, 0x2f, 0x53, 0x74, 0x61, 0x74, 0x65, 0x66, 0x75, 0x6c, 0x50, 0x61,
  0x72, 0x74, 0x69, 0x74, 0x69, 0x6f, 0x6e, 0x65, 0x64, 0x43, 0x61, 0x6c,
  0x6c, 0x2f, 0x73, 0x65, 0x71, 0x75, 0x65, 0x6e, 0x74, 0x69, 0x61, 0x6c,
  0x5f, 0x31, 0x35, 0x2f, 0x64, 0x65, 0x6e, 0x73, 0x65, 0x5f, 0x35, 0x39,
  0x2f, 0x4d, 0x61, 0x74, 0x4d, 0x75, 0x6c, 0x3b, 0x73, 0x65, 0x71, 0x75,
  0x65, 0x6e, 0x74, 0x69, 0x61, 0x6c, 0x5f, 0x31, 0x35, 0x2f, 0x64, 0x65,
  0x6e, 0x73, 0x65, 0x5f, 0x35, 0x39, 0x2f, 0x52, 0x65, 0x6c, 0x75, 0x3b,
  0x53, 0x74, 0x61, 0x74, 0x65, 0x66, 0x75, 0x6c, 0x50, 0x61, 0x72, 0x74,
  0x69, 0x74, 0x69, 0x6f, 0x6e, 0x65, 0x64, 0x43, 0x61, 0x6c, 0x6c, 0x2f,
  0x53, 0x74, 0x61, 0x74, 0x65, 0x66, 0x75, 0x6c, 0x50, 0x61, 0x72, 0x74,
  0x69, 0x74, 0x69, 0x6f, 0x6e, 0x65, 0x64, 0x43, 0x61, 0x6c, 0x6c, 0x2f,
  0x73, 0x65, 0x71, 0x75, 0x65, 0x6e, 0x74, 0x69, 0x61, 0x6c, 0x5f, 0x31,
  0x35, 0x2f, 0x64, 0x65, 0x6e, 0x73, 0x65, 0x5f, 0x35, 0x39, 0x2f, 0x52,
  0x65, 0x6c, 0x75, 0x3b, 0x73, 0x65, 0x71, 0x75, 0x65, 0x6e, 0x74, 0x69,
  0x61, 0x6c, 0x5f, 0x31, 0x35, 0x2f, 0x64, 0x65, 0x6e, 0x73, 0x65, 0x5f,
  0x35, 0x39, 0x2f, 0x42, 0x69, 0x61, 0x73, 0x41, 0x64, 0x64, 0x3b, 0x53,
  0x74, 0x61, 0x74, 0x65, 0x66, 0x75, 0x6c, 0x50, 0x61, 0x72, 0x74, 0x69,
  0x74, 0x69, 0x6f, 0x6e, 0x65, 0x64, 0x43, 0x61, 0x6c, 0x6c, 0x2f, 0x53,
  0x74, 0x61, 0x74, 0x65, 0x66, 0x75, 0x6c, 0x50, 0x61, 0x72, 0x74, 0x69,
  0x74, 0x69, 0x6f, 0x6e, 0x65, 0x64, 0x43, 0x61, 0x6c, 0x6c, 0x2f, 0x73,
  0x65, 0x71, 0x75, 0x65, 0x6e, 0x74, 0x69, 0x61, 0x6c, 0x5f, 0x31, 0x35,
  0x2f, 0x64, 0x65, 0x6e, 0x73, 0x65, 0x5f, 0x35, 0x39, 0x2f, 0x42, 0x69,
  0x61, 0x73, 0x41, 0x64, 0x64, 0x00, 0x00, 0x00, 0x02, 0x00, 0x00, 0x00,
  0x10, 0x00, 0x00, 0x00, 0x20, 0x00, 0x00, 0x00, 0x0e, 0xfc, 0xff, 0xff,
  0x00, 0x00, 0x00, 0x01, 0x14, 0x00, 0x00, 0x00, 0x34, 0x00, 0x00, 0x00,
  0x04, 0x00, 0x00, 0x00, 0x00, 0x00, 0x00, 0x02, 0x70, 0x01, 0x00, 0x00,
  0xac, 0xfa, 0xff, 0xff, 0x08, 0x00, 0x00, 0x00, 0x14, 0x00, 0x00, 0x00,
  0x01, 0x00, 0x00, 0x00, 0x00, 0x00, 0x00, 0x00, 0x00, 0x00, 0x00, 0x00,
  0x00, 0x00, 0x00, 0x00, 0x01, 0x00, 0x00, 0x00, 0xbb, 0xf8, 0xe8, 0x38,
  0x41, 0x01, 0x00, 0x00, 0x73, 0x65, 0x71, 0x75, 0x65, 0x6e, 0x74, 0x69,
  0x61, 0x6c, 0x5f, 0x31, 0x35, 0x2f, 0x64, 0x65, 0x6e, 0x73, 0x65, 0x5f,
  0x35, 0x39, 0x2f, 0x4d, 0x61, 0x74, 0x4d, 0x75, 0x6c, 0x3b, 0x53, 0x74,
  0x61, 0x74, 0x65, 0x66, 0x75, 0x6c, 0x50, 0x61, 0x72, 0x74, 0x69, 0x74,
  0x69, 0x6f, 0x6e, 0x65, 0x64, 0x43, 0x61, 0x6c, 0x6c, 0x2f, 0x53, 0x74,
  0x61, 0x74, 0x65, 0x66, 0x75, 0x6c, 0x50, 0x61, 0x72, 0x74, 0x69, 0x74,
  0x69, 0x6f, 0x6e, 0x65, 0x64, 0x43, 0x61, 0x6c, 0x6c, 0x2f, 0x73, 0x65,
  0x71, 0x75, 0x65, 0x6e, 0x74, 0x69, 0x61, 0x6c, 0x5f, 0x31, 0x35, 0x2f,
  0x64, 0x65, 0x6e, 0x73, 0x65, 0x5f, 0x35, 0x39, 0x2f, 0x4d, 0x61, 0x74,
  0x4d, 0x75, 0x6c, 0x3b, 0x73, 0x65, 0x71, 0x75, 0x65, 0x6e, 0x74, 0x69,
  0x61, 0x6c, 0x5f, 0x31, 0x35, 0x2f, 0x64, 0x65, 0x6e, 0x73, 0x65, 0x5f,
  0x35, 0x39, 0x2f, 0x52, 0x65, 0x6c, 0x75, 0x3b, 0x53, 0x74, 0x61, 0x74,
  0x65, 0x66, 0x75, 0x6c, 0x50, 0x61, 0x72, 0x74, 0x69, 0x74, 0x69, 0x6f,
  0x6e, 0x65, 0x64, 0x43, 0x61, 0x6c, 0x6c, 0x2f, 0x53, 0x74, 0x61, 0x74,
  0x65, 0x66, 0x75, 0x6c, 0x50, 0x61, 0x72, 0x74, 0x69, 0x74, 0x69, 0x6f,
  0x6e, 0x65, 0x64, 0x43, 0x61, 0x6c, 0x6c, 0x2f, 0x73, 0x65, 0x71, 0x75,
  0x65, 0x6e, 0x74, 0x69, 0x61, 0x6c, 0x5f, 0x31, 0x35, 0x2f, 0x64, 0x65,
  0x6e, 0x73, 0x65, 0x5f, 0x35, 0x39, 0x2f, 0x52, 0x65, 0x6c, 0x75, 0x3b,
  0x73, 0x65, 0x71, 0x75, 0x65, 0x6e, 0x74, 0x69, 0x61, 0x6c, 0x5f, 0x31,
  0x35, 0x2f, 0x64, 0x65, 0x6e, 0x73, 0x65, 0x5f, 0x35, 0x39, 0x2f, 0x42,
  0x69, 0x61, 0x73, 0x41, 0x64, 0x64, 0x3b, 0x53, 0x74, 0x61, 0x74, 0x65,
  0x66, 0x75, 0x6c, 0x50, 0x61, 0x72, 0x74, 0x69, 0x74, 0x69, 0x6f, 0x6e,
  0x65, 0x64, 0x43, 0x61, 0x6c, 0x6c, 0x2f, 0x53, 0x74, 0x61, 0x74, 0x65,
  0x66, 0x75, 0x6c, 0x50, 0x61, 0x72, 0x74, 0x69, 0x74, 0x69, 0x6f, 0x6e,
  0x65, 0x64, 0x43, 0x61, 0x6c, 0x6c, 0x2f, 0x73, 0x65, 0x71, 0x75, 0x65,
  0x6e, 0x74, 0x69, 0x61, 0x6c, 0x5f, 0x31, 0x35, 0x2f, 0x64, 0x65, 0x6e,
  0x73, 0x65, 0x5f, 0x35, 0x39, 0x2f, 0x42, 0x69, 0x61, 0x73, 0x41, 0x64,
  0x64, 0x00, 0x00, 0x00, 0x01, 0x00, 0x00, 0x00, 0x10, 0x00, 0x00, 0x00,
  0x9e, 0xfd, 0xff, 0xff, 0x00, 0x00, 0x00, 0x01, 0x14, 0x00, 0x00, 0x00,
  0x34, 0x00, 0x00, 0x00, 0x03, 0x00, 0x00, 0x00, 0x00, 0x00, 0x00, 0x09,
  0x3c, 0x02, 0x00, 0x00, 0x3c, 0xfc, 0xff, 0xff, 0x08, 0x00, 0x00, 0x00,
  0x14, 0x00, 0x00, 0x00, 0x01, 0x00, 0x00, 0x00, 0x00, 0x00, 0x00, 0x00,
  0x00, 0x00, 0x00, 0x00, 0x00, 0x00, 0x00, 0x00, 0x01, 0x00, 0x00, 0x00,
  0x54, 0x72, 0xe9, 0x3b, 0x0d, 0x02, 0x00, 0x00, 0x73, 0x65, 0x71, 0x75,
  0x65, 0x6e, 0x74, 0x69, 0x61, 0x6c, 0x5f, 0x31, 0x35, 0x2f, 0x62, 0x61,
  0x74, 0x63, 0x68, 0x5f, 0x6e, 0x6f, 0x72, 0x6d, 0x61, 0x6c, 0x69, 0x7a,
  0x61, 0x74, 0x69, 0x6f, 0x6e, 0x5f, 0x34, 0x34, 0x2f, 0x62, 0x61, 0x74,
  0x63, 0x68, 0x6e, 0x6f, 0x72, 0x6d, 0x2f, 0x6d, 0x75, 0x6c, 0x5f, 0x31,
  0x3b, 0x53, 0x74, 0x61, 0x74, 0x65, 0x66, 0x75, 0x6c, 0x50, 0x61, 0x72,
  0x74, 0x69, 0x74, 0x69, 0x6f, 0x6e, 0x65, 0x64, 0x43, 0x61, 0x6c, 0x6c,
  0x2f, 0x53, 0x74, 0x61, 0x74, 0x65, 0x66, 0x75, 0x6c, 0x50, 0x61, 0x72,
  0x74, 0x69, 0x74, 0x69, 0x6f, 0x6e, 0x65, 0x64, 0x43, 0x61, 0x6c, 0x6c,
  0x2f, 0x73, 0x65, 0x71, 0x75, 0x65, 0x6e, 0x74, 0x69, 0x61, 0x6c, 0x5f,
  0x31, 0x35, 0x2f, 0x62, 0x61, 0x74, 0x63, 0x68, 0x5f, 0x6e, 0x6f, 0x72,
  0x6d, 0x61, 0x6c, 0x69, 0x7a, 0x61, 0x74, 0x69, 0x6f, 0x6e, 0x5f, 0x34,
  0x34, 0x2f, 0x62, 0x61, 0x74, 0x63, 0x68, 0x6e, 0x6f, 0x72, 0x6d, 0x2f,
  0x6d, 0x75, 0x6c, 0x5f, 0x31, 0x3b, 0x73, 0x65, 0x71, 0x75, 0x65, 0x6e,
  0x74, 0x69, 0x61, 0x6c, 0x5f, 0x31, 0x35, 0x2f, 0x62, 0x61, 0x74, 0x63,
  0x68, 0x5f, 0x6e, 0x6f, 0x72, 0x6d, 0x61, 0x6c, 0x69, 0x7a, 0x61, 0x74,
  0x69, 0x6f, 0x6e, 0x5f, 0x34, 0x34, 0x2f, 0x62, 0x61, 0x74, 0x63, 0x68,
  0x6e, 0x6f, 0x72, 0x6d, 0x2f, 0x61, 0x64, 0x64, 0x5f, 0x31, 0x3b, 0x53,
  0x74, 0x61, 0x74, 0x65, 0x66, 0x75, 0x6c, 0x50, 0x61, 0x72, 0x74, 0x69,
  0x74, 0x69, 0x6f, 0x6e, 0x65, 0x64, 0x43, 0x61, 0x6c, 0x6c, 0x2f, 0x53,
  0x74, 0x61, 0x74, 0x65, 0x66, 0x75, 0x6c, 0x50, 0x61, 0x72, 0x74, 0x69,
  0x74, 0x69, 0x6f, 0x6e, 0x65, 0x64, 0x43, 0x61, 0x6c, 0x6c, 0x2f, 0x73,
  0x65, 0x71, 0x75, 0x65, 0x6e, 0x74, 0x69, 0x61, 0x6c, 0x5f, 0x31, 0x35,
  0x2f, 0x62, 0x61, 0x74, 0x63, 0x68, 0x5f, 0x6e, 0x6f, 0x72, 0x6d, 0x61,
  0x6c, 0x69, 0x7a, 0x61, 0x74, 0x69, 0x6f, 0x6e, 0x5f, 0x34, 0x34, 0x2f,
  0x62, 0x61, 0x74, 0x63, 0x68, 0x6e, 0x6f, 0x72, 0x6d, 0x2f, 0x61, 0x64,
  0x64, 0x5f, 0x31, 0x3b, 0x73, 0x65, 0x71, 0x75, 0x65, 0x6e, 0x74, 0x69,
  0x61, 0x6c, 0x5f, 0x31, 0x35, 0x2f, 0x64, 0x65, 0x6e, 0x73, 0x65, 0x5f,
  0x36, 0x30, 0x2f, 0x4d, 0x61, 0x74, 0x4d, 0x75, 0x6c, 0x3b, 0x53, 0x74,
  0x61, 0x74, 0x65, 0x66, 0x75, 0x6c, 0x50, 0x61, 0x72, 0x74, 0x69, 0x74,
  0x69, 0x6f, 0x6e, 0x65, 0x64, 0x43, 0x61, 0x6c, 0x6c, 0x2f, 0x53, 0x74,
  0x61, 0x74, 0x65, 0x66, 0x75, 0x6c, 0x50, 0x61, 0x72, 0x74, 0x69, 0x74,
  0x69, 0x6f, 0x6e, 0x65, 0x64, 0x43, 0x61, 0x6c, 0x6c, 0x2f, 0x73, 0x65,
  0x71, 0x75, 0x65, 0x6e, 0x74, 0x69, 0x61, 0x6c, 0x5f, 0x31, 0x35, 0x2f,
  0x64, 0x65, 0x6e, 0x73, 0x65, 0x5f, 0x36, 0x30, 0x2f, 0x4d, 0x61, 0x74,
  0x4d, 0x75, 0x6c, 0x3b, 0x73, 0x65, 0x71, 0x75, 0x65, 0x6e, 0x74, 0x69,
  0x61, 0x6c, 0x5f, 0x31, 0x35, 0x2f, 0x64, 0x65, 0x6e, 0x73, 0x65, 0x5f,
  0x36, 0x30, 0x2f, 0x42, 0x69, 0x61, 0x73, 0x41, 0x64, 0x64, 0x3b, 0x53,
  0x74, 0x61, 0x74, 0x65, 0x66, 0x75, 0x6c, 0x50, 0x61, 0x72, 0x74, 0x69,
  0x74, 0x69, 0x6f, 0x6e, 0x65, 0x64, 0x43, 0x61, 0x6c, 0x6c, 0x2f, 0x53,
  0x74, 0x61, 0x74, 0x65, 0x66, 0x75, 0x6c, 0x50, 0x61, 0x72, 0x74, 0x69,
  0x74, 0x69, 0x6f, 0x6e, 0x65, 0x64, 0x43, 0x61, 0x6c, 0x6c, 0x2f, 0x73,
  0x65, 0x71, 0x75, 0x65, 0x6e, 0x74, 0x69, 0x61, 0x6c, 0x5f, 0x31, 0x35,
  0x2f, 0x64, 0x65, 0x6e, 0x73, 0x65, 0x5f, 0x36, 0x30, 0x2f, 0x42, 0x69,
  0x61, 0x73, 0x41, 0x64, 0x64, 0x00, 0x00, 0x00, 0x02, 0x00, 0x00, 0x00,
  0x03, 0x00, 0x00, 0x00, 0x10, 0x00, 0x00, 0x00, 0x00, 0x00, 0x16, 0x00,
  0x1c, 0x00, 0x18, 0x00, 0x17, 0x00, 0x10, 0x00, 0x0c, 0x00, 0x08, 0x00,
  0x00, 0x00, 0x00, 0x00, 0x00, 0x00, 0x07, 0x00, 0x16, 0x00, 0x00, 0x00,
  0x00, 0x00, 0x00, 0x01, 0x14, 0x00, 0x00, 0x00, 0x30, 0x00, 0x00, 0x00,
  0x02, 0x00, 0x00, 0x00, 0x00, 0x00, 0x00, 0x02, 0x04, 0x01, 0x00, 0x00,
  0xb4, 0xfe, 0xff, 0xff, 0x08, 0x00, 0x00, 0x00, 0x10, 0x00, 0x00, 0x00,
  0x01, 0x00, 0x00, 0x00, 0x00, 0x00, 0x00, 0x00, 0x00, 0x00, 0x00, 0x00,
  0x01, 0x00, 0x00, 0x00, 0x97, 0x35, 0x12, 0x39, 0xd9, 0x00, 0x00, 0x00,
  0x73, 0x65, 0x71, 0x75, 0x65, 0x6e, 0x74, 0x69, 0x61, 0x6c, 0x5f, 0x31,
  0x35, 0x2f, 0x64, 0x65, 0x6e, 0x73, 0x65, 0x5f, 0x36, 0x30, 0x2f, 0x4d,
  0x61, 0x74, 0x4d, 0x75, 0x6c, 0x3b, 0x53, 0x74, 0x61, 0x74, 0x65, 0x66,
  0x75, 0x6c, 0x50, 0x61, 0x72, 0x74, 0x69, 0x74, 0x69, 0x6f, 0x6e, 0x65,
  0x64, 0x43, 0x61, 0x6c, 0x6c, 0x2f, 0x53, 0x74, 0x61, 0x74, 0x65, 0x66,
  0x75, 0x6c, 0x50, 0x61, 0x72, 0x74, 0x69, 0x74, 0x69, 0x6f, 0x6e, 0x65,
  0x64, 0x43, 0x61, 0x6c, 0x6c, 0x2f, 0x73, 0x65, 0x71, 0x75, 0x65, 0x6e,
  0x74, 0x69, 0x61, 0x6c, 0x5f, 0x31, 0x35, 0x2f, 0x64, 0x65, 0x6e, 0x73,
  0x65, 0x5f, 0x36, 0x30, 0x2f, 0x4d, 0x61, 0x74, 0x4d, 0x75, 0x6c, 0x3b,
  0x73, 0x65, 0x71, 0x75, 0x65, 0x6e, 0x74, 0x69, 0x61, 0x6c, 0x5f, 0x31,
  0x35, 0x2f, 0x64, 0x65, 0x6e, 0x73, 0x65, 0x5f, 0x36, 0x30, 0x2f, 0x42,
  0x69, 0x61, 0x73, 0x41, 0x64, 0x64, 0x3b, 0x53, 0x74, 0x61, 0x74, 0x65,
  0x66, 0x75, 0x6c, 0x50, 0x61, 0x72, 0x74, 0x69, 0x74, 0x69, 0x6f, 0x6e,
  0x65, 0x64, 0x43, 0x61, 0x6c, 0x6c, 0x2f, 0x53, 0x74, 0x61, 0x74, 0x65,
  0x66, 0x75, 0x6c, 0x50, 0x61, 0x72, 0x74, 0x69, 0x74, 0x69, 0x6f, 0x6e,
  0x65, 0x64, 0x43, 0x61, 0x6c, 0x6c, 0x2f, 0x73, 0x65, 0x71, 0x75, 0x65,
  0x6e, 0x74, 0x69, 0x61, 0x6c, 0x5f, 0x31, 0x35, 0x2f, 0x64, 0x65, 0x6e,
  0x73, 0x65, 0x5f, 0x36, 0x30, 0x2f, 0x42, 0x69, 0x61, 0x73, 0x41, 0x64,
  0x64, 0x00, 0x00, 0x00, 0x01, 0x00, 0x00, 0x00, 0x03, 0x00, 0x00, 0x00,
  0x00, 0x00, 0x16, 0x00, 0x20, 0x00, 0x1c, 0x00, 0x1b, 0x00, 0x14, 0x00,
  0x10, 0x00, 0x0c, 0x00, 0x00, 0x00, 0x00, 0x00, 0x08, 0x00, 0x07, 0x00,
  0x16, 0x00, 0x00, 0x00, 0x00, 0x00, 0x00, 0x01, 0x18, 0x00, 0x00, 0x00,
  0x2c, 0x00, 0x00, 0x00, 0x48, 0x00, 0x00, 0x00, 0x01, 0x00, 0x00, 0x00,
  0x00, 0x00, 0x00, 0x09, 0x60, 0x00, 0x00, 0x00, 0x02, 0x00, 0x00, 0x00,
  0xff, 0xff, 0xff, 0xff, 0x1b, 0x00, 0x00, 0x00, 0x0c, 0x00, 0x0c, 0x00,
  0x00, 0x00, 0x00, 0x00, 0x08, 0x00, 0x04, 0x00, 0x0c, 0x00, 0x00, 0x00,
  0x08, 0x00, 0x00, 0x00, 0x10, 0x00, 0x00, 0x00, 0x01, 0x00, 0x00, 0x00,
  0xcf, 0xff, 0xff, 0xff, 0xff, 0xff, 0xff, 0xff, 0x01, 0x00, 0x00, 0x00,
  0xf1, 0x38, 0x0d, 0x3d, 0x1e, 0x00, 0x00, 0x00, 0x73, 0x65, 0x72, 0x76,
  0x69, 0x6e, 0x67, 0x5f, 0x64, 0x65, 0x66, 0x61, 0x75, 0x6c, 0x74, 0x5f,
  0x64, 0x65, 0x6e, 0x73, 0x65, 0x5f, 0x35, 0x37, 0x5f, 0x69, 0x6e, 0x70,
  0x75, 0x74, 0x00, 0x00, 0x02, 0x00, 0x00, 0x00, 0x01, 0x00, 0x00, 0x00,
  0x1b, 0x00, 0x00, 0x00, 0x02, 0x00, 0x00, 0x00, 0x24, 0x00, 0x00, 0x00,
  0x04, 0x00, 0x00, 0x00, 0xf0, 0xff, 0xff, 0xff, 0x19, 0x00, 0x00, 0x00,
  0x02, 0x00, 0x00, 0x00, 0x00, 0x00, 0x00, 0x19, 0x0c, 0x00, 0x10, 0x00,
  0x0f, 0x00, 0x00, 0x00, 0x08, 0x00, 0x04, 0x00, 0x0c, 0x00, 0x00, 0x00,
  0x09, 0x00, 0x00, 0x00, 0x04, 0x00, 0x00, 0x00, 0x00, 0x00, 0x00, 0x09
};
unsigned int tflite_micro_model_tflite_len = 12000;
